node {
  name: "x1"
  op: "Placeholder"
  attr {
    key: "dtype"
    value {
      type: DT_FLOAT
    }
  }
  attr {
    key: "shape"
    value {
      shape {
        dim {
          size: -1
        }
        dim {
          size: 240
        }
        dim {
          size: 1
        }
      }
    }
  }
}
node {
  name: "encoder_1/conv1d_1/convolution/ExpandDims/dim"
  op: "Const"
  attr {
    key: "dtype"
    value {
      type: DT_INT32
    }
  }
  attr {
    key: "value"
    value {
      tensor {
        dtype: DT_INT32
        tensor_shape {
        }
        int_val: -3
      }
    }
  }
}
node {
  name: "encoder_1/conv1d_1/convolution/ExpandDims_1/ReadVariableOp/resource"
  op: "Const"
  attr {
    key: "dtype"
    value {
      type: DT_FLOAT
    }
  }
  attr {
    key: "value"
    value {
      tensor {
        dtype: DT_FLOAT
        tensor_shape {
          dim {
            size: 7
          }
          dim {
            size: 1
          }
          dim {
            size: 16
          }
        }
        tensor_content: "\306\023\000\276\362ab\276\364\273I\276\344\277!=\002\262\214=\352\006\025\276\377\225\352\275\016\352\216=\267s\337\275\254D\354\275WRZ\276\312C\355=#{b>X\277\211\274^K\372=L\r\027\275LiH=B\272\343=\344R7=\"\376\370=\352\025-\276q\327M>\260\026~\2740\376\034\276p}\317<\036<c\276\200av;_=\345\275p{\233\275\0069\273=H\236\355<\354\215r=\006\004\327=\016\365\276=]\353`\276\243\3129>&\360\r\276\334\035\201\275Z\020\017\276m\320_>0\341\014\275\267\242\004\276\303\177\035\27602a\275\374T*\276C\364\362\275\200\036\013;\356\305\302=h4\321<\370u6\276\260\244=\275+\333,>ow\023>x\311\267\274!\010H\276\"~ \276\233\027\004>\265\212\000>\000\177\245\272\262\253\263\275\257\204#>|v\267\2753@ >\356Q\327=ZP\323=\306\207\344=\177[a>\271\312_>R\210\274\275\267\370P>|N=\276^\377\266=\027>\315\275\270[\363\274%\255\366\275\376\371\221\275 K\014\276\000R\257\272\240\214R\276 C\024\276\016\016\317\275Q\212\355\275\375n\023\276\\\\)=C\257\026>8\n\341<7\'U>\200v\353;\226\374\223=\"\242\200=F\201\230=\276\203\207\275\256\360\251=>\362\371=\253d\357\275\355-\003>\324\364\036=\300e\270\274\325)\000>\000\342\251:\276G9\276\276R\371=%KJ\276cf^\276\214\304f=\371\0052\276\016\363\337=\014\3235=v1\324=\034.\001\276\036u\215=\300\347\036\276"
      }
    }
  }
}
node {
  name: "encoder_1/conv1d_1/convolution/ExpandDims_1/dim"
  op: "Const"
  attr {
    key: "dtype"
    value {
      type: DT_INT32
    }
  }
  attr {
    key: "value"
    value {
      tensor {
        dtype: DT_INT32
        tensor_shape {
        }
      }
    }
  }
}
node {
  name: "encoder_1/conv1d_1/Reshape/ReadVariableOp/resource"
  op: "Const"
  attr {
    key: "dtype"
    value {
      type: DT_FLOAT
    }
  }
  attr {
    key: "value"
    value {
      tensor {
        dtype: DT_FLOAT
        tensor_shape {
          dim {
            size: 16
          }
        }
        tensor_content: "\000\000\000\000\000\000\000\000\000\000\000\000\000\000\000\000\000\000\000\000\000\000\000\000\000\000\000\000\000\000\000\000\000\000\000\000\000\000\000\000\000\000\000\000\000\000\000\000\000\000\000\000\000\000\000\000\000\000\000\000\000\000\000\000"
      }
    }
  }
}
node {
  name: "encoder_1/conv1d_1/Reshape/shape"
  op: "Const"
  attr {
    key: "dtype"
    value {
      type: DT_INT32
    }
  }
  attr {
    key: "value"
    value {
      tensor {
        dtype: DT_INT32
        tensor_shape {
          dim {
            size: 3
          }
        }
        tensor_content: "\001\000\000\000\001\000\000\000\020\000\000\000"
      }
    }
  }
}
node {
  name: "encoder_1/conv1d_1_2/convolution/ExpandDims/dim"
  op: "Const"
  attr {
    key: "dtype"
    value {
      type: DT_INT32
    }
  }
  attr {
    key: "value"
    value {
      tensor {
        dtype: DT_INT32
        tensor_shape {
        }
        int_val: -3
      }
    }
  }
}
node {
  name: "encoder_1/conv1d_1_2/convolution/ExpandDims_1/ReadVariableOp/resource"
  op: "Const"
  attr {
    key: "dtype"
    value {
      type: DT_FLOAT
    }
  }
  attr {
    key: "value"
    value {
      tensor {
        dtype: DT_FLOAT
        tensor_shape {
          dim {
            size: 7
          }
          dim {
            size: 16
          }
          dim {
            size: 32
          }
        }
        tensor_content: "\013\222\002>\222\320\267=\322\352\265=\220X\307\275\000\241\274;sF\347\2757q\221\275\007I\300\275\002*\236=\206b\275\275~}\361=\336\254\003\276\013\214\235\275\244\214\256=<\003\321\275\230WT=PV\252\275\324K\277=\337m\263\275\003\205\222\275\000\340\025<\300\0367;\340\312f=\356\030\267\275T7T\2751#\335\275\230\243\312<~\212\222\2750\261\017<*\241\276\275r\3764\2753\231\262\275\272\216\220\275(\350\034\274\260Dh=\000\242d:d\004\214=\000\210B:\332n2\275\200\337:=\266\214#\275\316G\365=\252\322\221=@\333D=8\254Q\274fV\010\276\267\275\341\275}\352\236\275\370-s=,t\257\275\370\351\251=\350^!\275\340}$=(\320]=t\036\344=0\017\253=\002\273\\\275\3359\366\275\204\304A=\332`\330=\024S\277\275\210 \333\2754\243\001=\360<\033<<\366\317\274\014\307S\275pf\267<\303}\330\2754\371\330\275@\225\206<\240\003K<\016\331\346=X\345\366\274P\324N<p\376\232\275PY\'=n]\302=\244\346\002\276\364\251\211=\362\214\227=\024\255\336\274\210\274\213\275\\\305\216\275x\232}=\275\300\355\275\376\237\232\275\020\250\213<\222v\310=pCJ<.\252u\275\364Fv=\264:\367\275\240\3700<\341x\350\275\026\202s\275y\216\000>\354QJ=_4\002>\344\3378\275P\225\214=\342\330\343=\312\031\371=`\t\236=\000\274\346\274\030u\336\275@\006\353\275\376\223\250\275\374k\243=\2144%=\264\302\010\276\274X\215=\370 C=n\356\236=\0027M\275\360\262l<\352S\n\275\002\336\227=X:j\274\022\237\373\275\376H\362=q\033\206\275\010b\205\274H`\337<\300:z<Pa2\274ES\230\275UA\202\275\036\254\370=\000C\022=p@\313\275\220\261\260<\374j\257\275\277\352\005>B\343Y\275(\324X\274\346\277\375=\216\027\267=`\227=\275\0236\004>@Y\023<\224}\272\275\000\341C\272(\370\324\274\372\r\251=\010\205\246\274\010\355\331=\374&\257\275\320\274\241\275\330\261\003\276:\252\307=\240,\"\275x*K=DP\303=h\370\002\276\200k7<\264\277\277=\200\201T\273\320\0256<\200\304\006<\\d\303=\300\221T<\374\023n=\010;\273\274R\342d\275k\327\261\275\336\346\237=\250\261\376\274\276\n\200=\272RI\275\006\030\007\276\274\001\314=\334\021f\275e\227\003>f\312\005\275*Q\201=D\254o=^\361R\275\261\t\002\2761L\346\275H\375\277\274\366\024\221\275\362\235\371\275\276\037\324=\250\016:=^\304\362=\240\016\277=\244y\260\2746\237\333\2750\370\'=\376si\275@\350\001=W\206\325\275\234\340\035=\240\326\355\273De\246\275J\367\r\275\344\226\207\274DPY\275\263\257\217\275(i\255<`\306_<jU\356=0\\v\2744\312\274\275\346\331\021\275\376\017\376\275\\1\206\274[S\005\276\314\177\355\274\361\223\002>H\362\211\275{K\006>\356+\372=<Z\323\275\027\016\270\275`\223\337\273\250?d\275\241k\211\275\200\334\351:<\024\361\274T18=\022\310\372=<0\350\274\250,.\274\300\2531\275\240\370\006\274]i\010\276\370CB\274\320\226\203<\206\365\361=x\027_\274\031\367\006\276\264TX\275x\321\222<\311\242\340\2751\371\005\276\330|\016=\032\200\021\275E\244\004>Pm\320<\225\312\335\275\362~\257\275HuZ=\204\325K=\300\363\002\275(\274\260=\346\245\221\275d\355v=w0\254\275\241\344\375\275\300\035\004\276\016\205\226\275\340\327><p\335c=\224Pk=pO:\2748\026\261=\030\344\204<\366\315\375\275B\255\245\275`\203\275;\032i\302\275\300\n\355;\306\361\253=p\207X\274^n\362=\000\346\206\271\332\023\375=\254\227\322\275DP\022=\241\234\272\275\215\273\001\276\260\373!\275\305\016\005>\270\250\315<\216{\357\275\362P\323=\255\020\267\275`?\243\2758\374\262\275\216\303\215=\331\260\216\275\234x\333\275\340\032\332<H\002J\275\2402\245\273L\305\203\275`6\216;KN\207\275N4\010\275\020@\333\274\212\301\247\275\210\n\306<\211:\332\2750\371)\274\250P\231\274D\013\355\275\337\360\007>\350\372\351=\330\342\317\275|q\"=\357\313\000\276\272\216\225=8\235m= ez\274%\324\003\276\264 \000=|\224\236=k\265\007>\320\213\207=\340\220s<\324u\\=V\314\371=\030i\234\275\306;\311=\200\023\226:\315\364\211\275\030,\242\274\026\327\262\275\220a1\274\270\315\213\275^\323\271=b\342)\275\0010\206\275J\016\347=>\364\207=(\022\300=\177\324\004>\365\211\236\275\254\344\226\274ry\317\275v\3152\2756\024\273=k\375\332\275\211\300\317\275\000M\022;\350\211\227<V|\212=p\356\230\274Ml\271\275\nR\225\275\220\005\366\275\260$\247=\320\363\201=H[\221=\353m\004>\264\324\222=\032P\325\275\202\263\212=`{\002=`\032\213\273\270\273\307\275E\272\362\275\t\355\304\275\356\030\263\275-(\002\276k\243\001>T\327\345=\260\007T\274\232\033\270=;\343\241\275\334\016\026=_F\005>\034b\210=\220\235\324<\224\250^=\262\031\361=\357\234\003>\207 \000\2762\205\322=\340\034\212=h\340\237=\000\267G;`\263\233=\250\311\027\274X1\323\275|\030\226=|3\003=V\005\212=\3504h\274\300`\320\273\257\227\205\275>\307\207=J\323\371=\262\247\231=Z2\361=\036\222\374=\276\304\245=\270\035\332\275\236\243\005\276&\366\365=?d\006>\340\'\316\275=\266\222\275\026\222\304\275\254\025\347\274X\357\263\274\346\265,\275\th\216\275\202D\303\275\032\003\250\275z\252\026\275i~\002\276\254\002\256=\340\032\236\273\372\003\323=j+\300=x0\001\276\"Z\230\275\340\302\345;\010\371\300=\027\241\257\275\3557\007\276-#\000\276\313\255\246\275L\253\346\274\200\316`\275\340?\311\274\016\324\205=\026\013\343=\026\343\000\276\340w&\274\270M)\2753M\271\275\014R\273=*\356\273=PK\377<\000\350.\274\006{\307\275\236\361\005\276\314\377\227\275\340z\275\273\276D\241=\204^\341=\"7\335=\366H\301=\030\234e=h\272\254\275\200/\256\275\020\307L=\2525\342\275\260J\345=`&\325\275\356\035\322\275 \233b\275\320\255\373<\n\257\023\275\315D\006\276\300p\000<\226l\005\276\010\237\362<\370\n\334\275P6x<\332{\247=\000\326a\273\314\367\234\274\310\024R=\210`\273\275zi\255\275\010H1\275\270u\342<\014\332\225=\276\374\306=\022\210\374\275\014\037>=P\336\230\275\3061\222=|\211\377\275\240\n\352\274\274\202\310\274\n\030\372=`\263\270=H\025\201=\334\240\353\275W\001\000>$\260\023=v7\352=\332_l\275,\361\236\275\344n\254=T\346\273=\025\317\007>\330\257(=\316\371\252=X\034\024\274p\326E=h5\362<\270\362@=La6=\241[\333\275\222\305\364\275H:\362\274\300\034\324=P\301\205\274\232\271\362= \005\217\274R\310\346\275\273_\252\275\330|\254<\320\277P=\200\305a;\010\265;\274\010\276\320\275\300KJ;\000g?:\230\374R=\324\r1=h\215\000\276P19<d\323\275=\320t\010\275\000\177\310=\300\265o<\350Y\006\276\240\220\325<\244\003\227=l&\214\274\002Q\217=4\222\200=\200\224\331;Nd\230\275\354\034\344\274\304\304\255\274>\364\372=\000$F\2713r\313\275\210k\026\275\306\224\325\275 \367\202\274\206_\005\275D\3731=\354/>=\300?\257<\360\376\026<\306Q\\\275\216\314\213=F;>\275T\371U=\344\326\334=d\322\010\2754\363\225\274@\206\236;\340\005]<H<l=!\201\312\275\254p\235\274\222d\327=\030\352\336\274\370\237\271\275\334\023\022=>\350\234=\256O0\275\320\250L\274\240pL=\260\235\315\275H\326\246<\336\207\264\275(\253\017\274`\231\206=\326\333A\275\317\254\003\276\234)\215\2756\315\237\275\2049\260\275?\363\362\275rc\241\275\2041\002\275\231\364\004>\364\307$=\000h\227\270\252M\333=\223\243\334\275\006\2049\275\236\266U\275|\020\356=\304\314\256=\031X\215\275\000\226\236\275\204\324\211=t\332\r\275\030\336\274\274v\200\355=\206\266\007\276\026\311\341=l>6=\262Ij\275\234\300z=\240\241/=\000\300\347=`}\347\274\220aV\274\030\227t=\206\364\277=\370\000\243<\360\376\316\275\020\335U=$C\311\275\rS\004>0\363,<p\274\244\275\320\306\223=\226,\373=%\364\007\276(\345\256\275U\327\000>\214\264\007=\332v\354=\364\247\206=:\345\274\275\374\362\312\275\356$(\275\266H\365=z\321@\2750\206\270\275X\001;=\21496=T\343h=\331\270\316\275j-\372=R\351\360\275\024B\213=\210\246\332\274\326o~\275\220\222I\275\223Q\001>\302e\350=\240\t\233\274\204\350/\275Z\317\217=PH\001\276+\377\201\275\320~\236<\261j\332\275\324\377\t\275\302\203\314\275\000\320\35784\313@=\032q\243\275J\327\276=\0107\217<\211\354\320\275\215\211\342\275\300\236\303\274\320\237\037<Z\3739\275&k\326\275-}\235\275\240zB<\202\014\360=\224es=\202\303\324\275\316\322<\275\320o;<*IF\275l9\254=\346\333\363\275pk\\=(\274\255<\2408\344\275>\255\341=<\010\362\274\200\313\342=45\257=\224\265\202=h\'h\274*\250\367=\032\261\312\275to\033\275P\2768=\206V\222=\360\254\273<\363\277\211\275\350>==\340\340\207;\310\353!\275\307U\005\276\031\333\263\275\356\244F\275\252\376t\275\342\177\330=\000\007\312\273\374: =2\366\300\275\225\007\003\276\326\301\346\275\200:?\274\2563u\275\206\374\305=\\~\265\274*3c\275\256\024\366\275\225|\010\276\250\3748\275\001&\005\276\034\367\320=\034\216P\275\036\222\320\275\022`\324=\240\340\246<\372\253\276=\332\257\376=\024>\253\2754\352\250\274\240\302\263=\200Z\232\274\260UE\275\345W\257\275\360,\333=\037\016\340\275\202\201\366\275\272Xh\275Z\304\376=\034>\202=T\233\264=|\031\010=p,\324<p\266\332<\244\356)=\252\237\320\275\000AP<\220b\362<\014C]\275d\313\000=\254\331\002\276\322\017\310\275 \r\260;\200}\340:\300\211K=\210X\002\275X@_\274\370\177+\275 K\206;6\216\271= \246\303\273\230\315\235<\265:\010>H\030\364\274\210!\211=\264\321\223=\\\312`=&\215j\275,Xx\275n\275\016\275n\016\264=\250\264\227<\320k\304\275\320{\367\274,\237*\2759\321\007>\220\212F<\3366\366=\260u\313=\360\240$<\022w\325=\352\342\226=\262\000P\275\200[\271:\316\331\232\275B\222\205=v:\234=\200\341\303\272\360(\003\274\330\037\312<p\320\341=\316\214\346\275@#\325=\376\335\250=\354\220\315\275\326q\230=\374=\251=:\\\302\275\370Wq\274\342u\371=\272\335\366=\240h-<\256\311\235=P\3406<\020\335\005\274\343\031\002\276\021\r\332\275\200\256\';\324\367\256\275\300\341x<\200\370?\273H\341\004\275b\024\317=&\321\360\275^pM\275\360\213\267\274 \255\265;@|t;\370\263w= \022\342;\334}\350\275\274)\350=t7\\=\020\005\210<\224Pu=\256\361\217=\360\327\271=\034\243\263\274\240\232O\274l\r\305=\220\370\005\274\220\304\324<\000w\245:V\261\346\275\030\031\275<\224\222p=4\025\304\274\320\336\260=\301\271\005>\214\212\337=\030\032\323<\247\207\331\275\274\211\235=\264j\026=~\r\377=\334\220\253\275\3133\234\275b\006`\275\026\026\363=`\207z=(}\263< q\356;\200%4;\014\242\n=z\254\241\275\016\t\336=\030\347z\275{\225\343\275\026O\325=\340b\005\274P\242[=\274\350\351\275\346\216\227=\014\264\'\275\230\353`\275\254\270\247=\034\240\232\275o/\220\275\264\244\310\275\212\357\310=C\306\332\275\337\030\003>\024q\230\274\200\316\247=\344\254\247\27482\346=\026\333\357\275\231\366\006\276\340\367\225\274\340\252\207;\225\311\003\276dUP=\306(\330\275\326\006\316\275\371\303\216\275\264\t\342=6\343l\275 \233a<\222\211\300=\376-\340\275\272wP\275\300t5=tT\201=p[\337=\010_\345=\275}\204\275\226\333\244=\304\322\235\275\310o\264=&\355\223=\274\320\231\275\342\333D\275\374\316C=\274\335\016=\000/\271\275f\022\333\275\374\244o\275\302|\263=P\\\353<tN\003=\221\001\005\276\244\001\337\275\354j\207\2756S\204= h\002<H\300!=\262+\305=\374]\233\275\266\326\335=8\350\245<\207\310\004>\372\217\267=\346\320\252=d@\313\275\034,\034\275>S\025\2750C\354\275\260\352*<\340p\211<\004\023\211\275h\232\333<\3662\206\2751\337\372\275^U\372\275R_\304\275\n\372\336\275^\035\257=&7\213=~\226\372=\034\235\037=\031\214\002>Aq\252\275\2500\332<W7\265\275\357L\364\275\212\275\330\275\200\302\354\274\000b\010;\342&\305= \250\345\274\344\255\240\275<\267\320\275\232\024\304=\030\357\217<\252\311\307\275n\217\277=\310.\"\274\356\224\205=$\034\221=\220E?=\212\324\363=\354v\303=Tz7\275L\360k=$\306\343=2g\250=\2424\357=$\362\274=\260\n\206=\256\035\265\275\220\241\027<R\246\244\275\n\324\315\275\332\247\272\275-\355\005>\334\232\321\275\264\364\334\274\\\006\016=:\365\350=\010a@\274\226\234\333=\370\271\024=t\255\032=\374\352\352\274\000]\223\273@\334\010;\270\255\307\275\230\373\352\275dB\220\275.\356\301\275\330j\345=v[\325\275\335@\215\275\300uc=\212@\014\275\256\231\376=\243o\267\275\310\246\222\2746\257\224\275\0004\276\272pc?=@\222\342<X(\333\274\216Z\232=~\300\326=P\353\206\274t\275\214\275>3\247\275\226\244\230=\366\347\305=\330V\243=\200\231\323\272\006\236\362=\372i\246=\320\2119<\3702\223=\300\271\373;\364\200\315=\010\371\372\275\340\262\220=4\034I\275\230\274\320\275\230\025\334=\004Q\244=\300[\013\273\214\3024=H\3414\274\000P\314\272\030\372\371<$\306\274=\270\205\354={;\200\275\244\347 \275\020\023><X\232\356<\000\351 <,\351\251\274\262\014_\275\204\362\263\275\320\245V=Z:\003\276\\\017\305=K\315\223\275t\234\340\275\216\r\211\275\026<\267=\336%\306=\262\201\225\275p}\212=\206,\n\275jv\243=D>\316\274\034\303\016\275|\232\240\275H\246\020=\024\356\004=(\257\000=\370\215\207=\033\021\010>\356n\331=\212=\366\275LJ\"=\3729@\275\3011\001\276\232\366\362= \272Q\274$L\207=e\300\200\275p\361\277<\027Y\001\276 \302\220\273\246r\335=\310G\330<\010\374\316\275\270F\341=\351X\213\275\\0}\275H\250\030=\302xB\275\370\373\334\275\370\274\330<`\311\365\274\"\310\373=\250\326\323<$\261\343\2748E\244=\201\361\001>\022\246\310=\316;\245\2758\266\250<\350\220\207= \232S\274\000\200\200=\326Kv\275\232\364\232\2754\214u=\240\226\331;D\211\320\275&5\213\2751g\220\275\016\370\340=\220\310\230=>\311s\2756,@\275:\251\222=\253\330\310\275K_\001>b\357\314\275\250\364\251\274\300\347\257\275@Ye=t\021Z=\000\027\304<.#\366\2756\017\272=|V\240=\354\204\306\274\260\260Q\275\000\2425\273\036n\274\275\255\026\326\275Z-\367=,\361\366\275j\327\210=\200\025\375\272\336\334U\275\000\276<<\206\261\233=\374\322z=\272\230\367\275P=F\2743\300\003\276\374_\254\275\000\220\212=\221@\232\275\350\311\027=\312\021\374=\000\354\035\271@\341\005=\022\337\203\275\370\363\213<^\336\006\276,{\230\275\344\000\223=\242\205\244=\302\332\302=O}\002\276X\337\022\275V\226\223\275\"\364\253\275\336V\357=\326{\242\275\020\016\230<\000\3161:lsu=\362\266\210=\306\330\004\276T\231C\275\254\303\275\274\027\274\332\275\000\360\371<H\344S=.\271\374=\177\'\007\276\334On=\246B\213=X\334\223\275\253\366\001>rA\031\275\354Vf=\376a\374=L\\\212=|\211\300=\214\212\014=\030Ke=\2666\262=p\214C\275o\340\260\275R\025\232=\325\270\210\275\254%\215=j\313\356=x\264\231<\260\347\224\275\036;\337\275\263h\230\275H\326<\275\330<\210<\320\001\017=@\037C\274\310\221\320\275\200\356\263\273\224P\256=\214F\316\274\270J\222=|a\330\275\236k\226\275\006\032\257=\324\361\225=\260.\207\275N\216p\275PtH<\240f\213=_\210\301\275t$I=\000\203\025;(\336\240\274\274C\352=(Jp=(zD\274\022\365\332=\234\312\317\275\034\360\033=\214\227\377\275~x\024\275R\233\367= \n><6\306\260\275\260=:<\024\261L=\344\016h=\020<6\274*b\005\276\225\210\010>\000\300\3247_\261\003>\004\r\006=\210\306\326=\204\367\232\274Ly\342=\304h\000=\367\027\213\275\000!\220\272\235\231\010>VY\032\275d\202a=`\3349<\264\022\377\275\020\302\321\274\355%\355\275\244\016\211=\310\317o=@s\363\274\340I\247\275\324\030\211\275\003\344\005>\216\340\377=\005\024\203\275\200\235\313:\377\310\365\275V\340\030\275@\354l\273\204\264\336=h?\336=\310\273i\274T\336\252=~c\r\275|zo=\240wK\274\204g\004\276 \006\316;\376!\353=\266}\213=^\270\347\275\252`\022\275X\266&\275\246\261\215=$\352\222\274\240\345\312\273\334bv=D\213\253\275\210I\226\274\345\365\322\27531\002>\220\204)<\020\006c=4\313\313\274\000\205\221\272\334\204]\275(=D=L\222\276=\000_\324\275\360\343\304<@\035\360\273\264!\363\275L\220\020\275\312i\337\275 \206\352;\332\314\205=\214\337(=&R\006\276\270\250\312=\240^\267;@\315%\273\030\0018=d\\\301\275a\277\010>Z\330\302=@\376~=\366\263\234\275\324\227\276\275\232\357\301\275|c]=\220\306*=\314\256\352\274\246\003\240\275\220\341,\275\244\371\302\274p\355\312\275\210\346\371< _V\275\220\343A=,\035a=,\030!=!\333\363\275\000\2624\272\330d\252=\256\036\221=\341t\360\275\251\376\342\275\326O\234=\244\326-=\340B\034<dMD=L\200\334\275\016\241\251=\024\031h=\000\356\235;\350Wz=O~\377\275F\254\304\275\236#\002\275\230~\227=\010gs\274\244\206a=\246\352E\275\252\336\353\275h|H=w\364\267\275\214\247\323\274x\263\246\274\202b\254=\344h\341=j|\210\275\010Q\251\274\304\353\260\274\370a~=\226\037\373\275\320\201f<\004\027\327=\000\270v\271V\350\261\275g\305\200\275\260c$=\020\2308\275\250\300\340<\311\335\325\275\000I\332:PP\335<\326\\#\275\300\323\262\273X\177\240<\330@\207=\010,\260=(Nq=\200[/=\366\036\240\275\n\331\276=\200\246\210<H\022\224\275B<\n\275\202z\230=R\325\212=X\325v\275\314x\316\274\300\334\303=T\312\312=~\031\222=V\211\366=\244\022\335=D\361\321\275N*\334\275m\365\002\276J|\234=\256\347G\275>\020\376\275\226\275\330\275nI\365=\261\271\003>\370\003\356=6\021\354=YE\010>\376!\322=\260r\260\275\220\257\023<b\275\321=\264Ux=\364\244\237\275n\312\006\275.\002\326\275\262r\341=\366\202`\275\210\024\375<\354\205\254=\220\n*\274\246\r\375=\006\252\220\275\2632\353\275+>\007>\004U\341\275\354?K\275\030a\304=\230\005z\275\302<\203=p\317\247=t\240\242\275\340\022\243\274\300@\243\273\021\031\004>\360\254\371<\264&\222=H\250\260\274\000\337>=J5\323\275`\003\314;h\371\315\275\254\362_=\034\003\'=P{\251<\326\264\375=\234\276\206=b\016\022\275\234\023\260\275x\252C\275\300o\331=c\365\001>\225\325\010>b\330\307=p\233\334\275\336\376i\275Z\t\243=\352)\260\275\222\360\315=\n\303H\275\312<\337=\334\302\226\274\\X\000=Xz\313<\260\337z\274\000,k=\224\320\301\275\374\272\253=\340{\227\273\347\312\004\276\n\004\200=\334\240\216=\207I\000>\025\257\233\2754\017\004\276\010\200\220\274\244\226\262\2754]\356\275\3504\233=J\252I\275\300\251\355\273\376\300h\275\21497\275\270\007\340\274\010d(\275\376\205\277=\210\033\261\275\224\023l=z1\264=\240\300\177\275p\2279<\022g\254\2750w\341=\340.\246=Nw&\275\270J|\275\024l\237\275\n\336\320=|\347\340\274t\277\026\275\024\215\256=\240\316\266=`9\036\275\030\r\"\275P\224W\275 yM<X\027\037=\3243\217\274xn\267=\n\365\362=\270\263\303<\250H\314=\340\234\363\273\221s\326\275\300\263\301\275:\370\374=\032Q\224= {\334;pC\273<Lf\000=a!\367\275\320\177\240<\246k\374=\321~\244\275 \221\261\273\300\346\273\273T\213\323=\305P\000\276!\340\365\275-\250\266\275\256\210x\275\270\275\026\275,\005v=\260\007\222<\201S\307\275\226V\350=\206M\374=\204\346\352=~\337\370=O\315\215\275\230g\230\274\014!I=\023\006\001\276\320\316\265\274\240R\320\275\202\004\322=\301\205\216\275\310\370\213\2759p\007>\207\006\001>v!B\275z\020\217\275\360\365\016\274\031$\000>\000+k\274\n\304\237=tv\374\274$\202\253\274\000\331\024=>Q\327=\226y\315\275\362\313\313=\240\231\260\273\310\020\322<\024\204\035=]u\366\275\300\330\310;\350\236\265\274\270\267\217\274\206\272\267=\257\321\352\275f\002\270=\222\371\021\2759B\004>\251\323\267\275\000`\324\271\320\017(\275U\303\357\275F;V\275\360\001\216<\320g\217<\024\253\221\275\344h-=\370e\004\275\346\247\\\2750\304\224<\274\252\354=\364\000\222\2746\341\254\275\220\306-\274p>\273\275\310!$=\010\221|\274W\034\312\275\310\376\265\274\022I\346=6b\t\275\305\346\254\275\250cj=\374[\004=0\214`\275\246\'\250\275l\245\302\275P\177t\275\342\236\250=xls=`)\363;\030\276\034=\330\357\327=\317_\010>$\211\352\275\000\243Z;\233r\007\276\274\251\304=H\014\262<\272\246\354\275\366F\376=\006Kg\275d-\267=\210\271X\275\000\374\232=\000\213\200<\364\315\351\274\267\216\003\276\010u\316=\300\333\031<\362\255\006\276\\\010\247\275l\270?\275^\311\222=\234\376\340\274XN1=@\314\351\275H\220\355\275]\306\367\275\000\255J:\233\340\005\276\342+\360=\365\356\002>\353l\341\275^\"\224\275\220N\203=\014\350\301=Q\215\004\276\364k\200=\260\330&\275\214\264\257=\200\037Q<\002\000\204\275\022\253\317\275\0264w\275\004\222N\275\2707]=\000\350\222:\232\303\323=\000\035\003=\360\275\033=\346\337\236=\214\312\251\275\036\333\372\275 \356\242=\350\351\316\275\224\313\"\275q\315\005>0-a<\021\334\204\275\230\326\260\275\222\274\307\275\316\032\371\275\370\317t\274\265\031\001>YF\304\275\360\202\204=\362p\367=\234\341\003\275\360Wm=~\241\030\275\242d\263\275\350\322\332=f\261`\275n\264\250=\266\253\314=68\310=h\257\345\274\240\335\310\273\224\211\203=\206V\334=\\.\337=\264%\273\275x\215\260=\202\003\266=<\306\347\275\252\215\207=\344\273\216=\2520\346=\200]\000=B>\360=\350t\222=\242\253p\275t\230X=\274{\212=v\265\332=@nb;\300l\275<\207\305\001>Rh\354\275\364%\257\274\304\363\267=i3\001><\362\276=kZ\200\275vA\313=\317\370\361\275\000\356\027\273 \030\320;\346<\256\275\226}\304\275x\221\213=\344G\t=l|\016=0\240G=\236\362\342=8\254<\275Tu\230=~\276\253=,\201\322=\\\335\235\275\024\205L\275l\237\031\275`\310\335<\224\3450=\213R\007\276X\177\246<@\200\344=p\245\315<\335\'\262\275t\305Z=.\220\311\275@\263\357\274\004\227\004\275B\337\221\275\331M\333\275|\333O=\3208\035=\272\014\243\275\330\214\n\275\334\3730=\320\027\r<\307\360\312\275\2000\343:\000\202\266<\020\361\023=\010\274\023=$\rW=\200\242\362\275F\367\203=\2708t=\334+\347\274\244\247\207\275\010&\263\2740\213\354<\340G\230<\024\0147\275\240\244\346\274\343p\201\275`xl\275\330h\231<\300hg<\204G\241\275\213Y\363\275\003\004\223\275\305\205\002\276\204\025\203\274\372\350\262\275\2302b\275\014up=\n\337\226\275<\216\344\274\000\230\2168\310\305\267<\305T\200\275I\226\215\275\3402\314=\320\230\003\274\310)\340\275\200aX\274\207\210\004>^l\204\275\034\014\252\275@\351\367<,T\316\274p(y<b\363\262=<\262\277\274\306\317\357=\331\335\367\275\216m\001\276$\367g=xS\272\275\234t\343\274\316J\364=\210(W\274\274X\341\274\230\362)=\234\257\007\276\204\262\230\275j\037\304\275\261\324\006>\260\252\351<\344\0250=l\0215=\270%\314=\2542\211=\014\024\316=|l\020=\024\362W=\362\274\342=P\366\321\274Ti\025\275\240Z\253=\000\250\333\275@s\327\273\014J\265\274\266\032|\275\216\202\002\276\240\n:\2740\337\024<E\332\273\275\0134\010>(Y\177\275\342\035\374\275\242o\322=H?w=\260\3227<\006g\220=\007d\202\275^\244\223\275\264\362R=0\325\266<6#\367=\220\362\302=,i\307=L0h=\200M\326\273 \255c\274\372\243y\275\300\374\310=\\\346q=#]\002>\202\362\001\275\344i\357\2740bi=\344gq=p5\303<*[\305\275,\327r\275\250i\235<\214\244\010=\200\270\207\274\016p\010\276*\254\264=`\017\033\274\201q\360\275\300\254\262\273d\226\332=\320\322\020\275\346R\005\275\016\\\352\275<aq=t1K\275\310\352\216<\202\372\322=\000\364!\272\326;\301\275\263A\367\275\310-Y=\026\005\333=:<\350=\332A\245\275\312\261\371=\314\213K=\354\304\222=(\307\230=P\\\316<\330Uq=)1\007>\346m\367\275\270\256T\274\260]\006\275p\226\324=\205r\006\276xk\222<\330\266\253=,\tW=\216H\212\275\240\200\322\274\376\377\262=\022)\263\275Zo\372=\322\323\336\275D\021\\\275\036P\210\275\302\371\373=\230E\351<\360\202z=@\033\n=v{\302=\231\013\005\276\220\303A\274Z\276\313=\374\310\310=p\356W<j\004\275=\222\303\201=\240\371\234\273\320\034\236=?a\364\275\034\315\246=\320\335\214=\344\347\326=\274\003\223\274l\014\363\275\3636\263\275\3709\334<\022\350\316=\020\306*<\004N\233\275\200h\277;\2001/\274\360\253\325\275\346\004\337=X86=l\036\224=F\257\331\275\240/\374\274\304\2317\275\325X\004\276z;W\275\340\323u<\205@\006>\214\006\307\275\340\2416<\340\'\346\274\010\003p=\220tv=\233\271\363\275\033\321\000>\210\t>\2752R\222=\206\217\216\275\250H\360<\276\307\026\275\364\010\322=\024\026\031=\0200\325=\204J\352\275\014\364\243\274$!\344=\320G=<\256\276\324\275x\003\024=\200\211\313\273@\206n=\024K\232\274\021\230\221\275\240~E\2748\"\354=,#\341=(W\306\274@\277~\275ZL\357\275B}4\275\210#p=\302<[\275\370\347\303=h`\363\274\330\340\271=\202O\343=\020\365\365<\000\334O94\310\177\275JXQ\275\372h\341\275\227]\004>\256y\004\275\204\251\002\276X\205\247<\334\014\334=f\252\267\275\266\030\254\275\256k\310=X\t\026=\210\274\303<\224;3\275\362@\257=`y\337=\373\016\005>\320\352\347\274\245\334\316\275[w\005>|k\213\2754\206\331=\200%\224;\370$\007\276j\262\206=X\005\242=Zg\261\275\334`\205=\306\360\324\2759\262\312\275\321\000\322\275\270\257N=\322\200\235=\000\214\256\2746\t\320=jw\356=\026\'\235\275jI\301=Z\330\323=\240\330\324\274\306\375\357=\262\373\267=\000\225\202:\334G\344\275\200\331\005=_\240\003>\230\263\341=\010\370\256=\276\367\270=\270o\230=h\025#\274\000\371<;\340.\213\274\274\216\243=\213l\007\276,\014\007=p\372q=\010\007}=X\226==\372\307\221\275pg\341=r\323\277=\371!\002\276\312\254\224\275@\\\273;\014n\001\276\2243;\275\220\247g\275p\211^=\330/\354<\254[/\275v`\372\275 b\347<\010\3551=\270\260\241\275\344c\352=\300\311\033;f\222\270=\370co\275T\275\332=\210\255\006\275\213\261\002>X(\203=\210\364\224=\250\306B\274\314\347\036\275eP\004>\016\223\t\275\336\274n\275\204\030\027\2758\355\024\274\214\021\232\275\244^\351\27491\351\275\374\210\373\274\016\317\327=\006v.\275\3742\000=!\006\251\275\342\250\312=\030\2279\275\305\n\003>\202\370\005\276\014\030\365\274\350\006t=i_\004>k\250\350\275\020i\377<>\301\250=\200\240\326\275T|C=\364$G=\230\2277\275\321\305\000>\232\001\236\275\252\013\017\275\250|\331\274\300\227\'=\350\313e=\271\031\251\2758\260\001=>\352\367=\244\350\347=\276U\201=\233s\322\275\210\245\022\2740\030\027\275\032>\227=j\244\344\275\024?\316=n\0037\275\2449\204\274\211&\201\275\330q+=\236\225\222=(\222\343=\000\340\002\274\\\330\305\275\014\025\274=\354\255v=\014\372\304=\300q\003;\022\200\244=<\003Q\275x\014x\275p}\246\275\210\365d\275]x\002\276C\224\002>\\d\002=\312\032\234=h\350\006\276j\033\315\275\230\005A=\010\265\317\274H\330\001\275\332\276.\275\241\277\310\275\206#\377=\216\263\311\275\221#\003>D\332\033=\240\265L<\240nL\275\024\016\243\275\036\207\373=G\235\005>P\344\245\275S<\216\275\364\267\277\275H\027\030\2759y\223\275\000@7\275\031A\010\276\210r@\274l.\366\275x\334\213<\014\362\333\2758~\224\275z2.\275\333\365\247\275\000|J\272\200\222\220\272\302b\345\275\304.\322\274\2738\001><\321\331=h\275\315\275l\272\241\2756\201\362\275^\035\004\276G\014\201\275\270Y\275=\266\305\375=\300\343\272\273\316\220\357\275r\302\376=|q\206=g\363\326\275\251\264\225\275\256\nZ\275]:\214\275\026\225\210\275\000L@;4$f=\0321\364=\334\243[=\2062\377\275\020\262\316<\210\326\217<\350YJ\274\000(\305\272\260,\006<L\257\014=\207\364\001>(\177\235\274\332\024\253=Z{\350\275\305\366\375\275H\020J\275\200\255\300\273&\203\254=\014\006\370\2748K\257=\030W2=\030\255\247<J\237\002\275\024\323>\275\252\224\200=\234{\246\274\376\267\373=\300\263\201;\310\237\226\275X-.\274W\337\377\275Nx\311\275\254$[\275<\270+=\010ne\275\255U\266\275^\313\374=|t\362\275\000d\025\2747J\344\275\024\320\330\275\306\314\376=\200\260\010<f\'\020\275\036o\370=\242]D\275\330Q\235=\241\003\001>\220\247\340\275\331\274\002\276\376\345K\275HH\251\274\340\356W<\202\233\313\275PRJ<x]f=\314l\207\274X7[\275\310\307\365\274\220;\243=\322\234\360=H\t\255<x\300\355\275@\205\275\275\244\367\224\274:K\304=\371\033\004\276H\363:\274\2208|<\377\264\001>\336)\376=@>\236\274\220\271\000\276\234\357\274\274\225\340\006>\340X\001<\310=\266<\344U\207=BC\356=\231\266\006\276\222^\242\275@\367\227=\030\362O=\316+\304=\240\336\200=\220&$<\0160M\275f\006\236=\334\326\210\274\306?\350=4vK=8\262\202=\364\270\333\275GE\240\275\370\362\000=(!\220<B\217=\275XJ\030\274\337T\373\275\240\\w\274\264\341\223=\000\2632\272\324\222_\275\362N\332\275\336U\326\275P`S=@hb<\212\352\266=\316\034\232=J\273\232\275\244\237Y=\221~\266\275 \307\373;\344\243\225\274^\021\327=\256\357\314=\\}\307=\350\ty=\266\360\320\275 G\243\274l\330\376\275\264~\331=\374\372\320\275\257\235\222\275\022}\220=\300W\t\275\224\347\335\274\206\302\317=\310)\341<\354\276\330\275\000_\237\275\220\010\271\275\016\253\354\275\344\017\362\275\000]\373\273\214\003\210\275\266\014\251=@\311\010<\354\304\025=b>\364=\230\026L= \023\366;\300x6<\004)C\275\234\313\340=o(\277\275\212w\370=\323F\230\275\232Z<\275L\274\371\274|\200\001=\220\226F<\320*A=\200I\177;Py\245\274\254\250\334=\346\234\214\275 \235d<,\341\352=\240S\370\274\'\"\007\276\212\372\343=\264X\310=\270\205,=\354q==\006\277\306\2750\036\021=\020\275\336<\262\251\300=\206\001\207=:M\317\275!\272\335\2750\217}<\376:\n\275\260^\004=\000\357i=(^q=\\\300\t=\360\377$=\014\026\013=\020`\273\275X\361\356\274\346\240\240=\342\206\373=\000|\256:\356!\311=\334\3731=H*\227<\330-\'\275\023N\374\275B?\372=\224(~\275\364\001\017=\354t\255=\214\270\311=V\307\325\275t\357 =\370O\201<\000\274~9+\217\003>\232\002\350\275R\n\230=<g\033\275\340\302\373\273\242\034\344=\306 \006\276t\035\361\274\300h\022;\016F\214=h\375\020=\304\031\371\275f~\336=\324Z\030=\3003\204<Sq\261\275\320\010\"\275\204[m=\305s\003>$`:=\033\263\240\275\366\230\211=n\357\356=\003\006\002>\210\027m\275\302\362\245\275\354zd=\352\264z\275$\252\257=\344\346\001\276\276\277\362=mG\001>\020\250\345\275\000\240\270<\354\351\276\274W\322\210\275\031\212\376\275\036n\316=p\353\325\274\356\323\275=\326\022\326=~\272\356=\260\"I<\300\242,=\200h9<\251\304\317\275\235\231\007>\236Y\022\275T\235\350=dP\263\274\"\220\256=`1\222;f\215\301\275\206\353\373=\000\272@;\314\204\222=lo\276\275\334\263t=\025n\231\275d\320\364\275  .<4\205w=\220\251\207=o\031\004>\200\037\264=0=\010\275T^\302=\3766\245=\336\235p\275z\207\262\275`M\252<\340A\311;\030\307\206\274\013O\230\275\351\246\354\275\200\261x=\304\260=\275\272OK\275\372\320\212=,0\006\276L\t\356\275(\253\262=:34\275=\377\324\275p\216\262<X\357a\274\200\033\204\273\200\302\323\275~D\267\275v\254\372=\343\213\211\2756\203\007\275pd\035\275\245\377\001>\0008\022=\276\2358\275\350Q\204=\r\013\377\275\230l\201\275\360\222\031\274\220w\272=\020\204\024<<\\s\275@*w<\350k\257=\332\3529\275\315\205\310\275-\213\365\275B{\260=\336\227\300\275Uj\250\275M\227\001>`\275\236\273Oe\222\275\000\212\003<\260\316\321\275\254\322\353=\276\235\225\275\177E\333\275@k\255\273\002\023\357\275\034\342\033\275H7\203\275^yu\275\320\223\315=\022[\302\275\244\3562\275\230\266\221<\214y\276=\026\307\371\275x~D=\246\255\220=\006\001\267=n}\314\275<\177c=\356X\351=\207!\202\275t\267|=\n\204m\275\272\346\344=0k\360<p\253\262<\326\240\327=\360\326\212<\000,\'9?\205\236\275+5\344\275\010\023t=~\265\360=\330}k\274\213\004\257\275@u\006\276\362d\267=F\372\335=\376\335\321=\256\274\373=\222\332\266=_\006\341\275\330]\000\275JY\312=\312\263\231=\353\240\377\275@\006\224=\036\317\346=(\265\373<0\227\231=\360\274N=\030\236\261<`2\005\276|\204\212=\320\205\273=*\267\364=x\001\365<\274\253\316=p\355\233\275V\312\374=j\372\355\275}\272\254\275\010G@=<f\254=\346\311\021\275\334;\304\275gS\206\275\230\306\323\275z\006\371=\256\315\364= \240\331\275s\013\346\275\316H\357=\3133\001>$\272\335=\355\274\203\275Pv=\274\276\005#\275\360S\362\274\030\301\305<\333\276\357\275W\177\004><\261\002=>\017\032\275@\255$<\206ba\275\202\316\227=(\007b=V\251\277=\361\263\005>\306\254\254\275>_#\275,\367\276=\270\310T=\320\004\305<\354\r\037=Hb\256\275\224\243\034\275B{)\275bM?\275@N\257<\200\242\341<\300\205\212<\004\360n=\2707\214\274^w\376=\370\t\264=\340 G\2754]/=\320\207\021=\000\014h<\"\030\300\275\030K\325=<\273\036\275jx\242\275Nm\235=\204\010\221=51\001>\250i\373\274\037.\004\276h\013\234\275\244G+=\034\241\344\275`\263\333=\240a\241\275pF\t\274\204\267\366\274\204M\250\274\301\324\002\276\200V\301<v\021\372=\000\010O\271 \004\322\2730g\211\274\250jr=tle=\360t\326\274\226\376\231=1\036\005>\266\241o\275\002\200\367=\260\272\003\276dJC=\250+7=(\335\214=0\263e\275@\3626;\005\352\351\275\032/\344=2n\207=\326\271\316=X\310\265\2754=\352\275h\212.\275|\367u\275\000\341C:\260\257\314=\2143\314\275\330\324\246=^\236\305=\366\'\346=\000\232\365\273p\332\251=\256\177\243\275\276\025\351=<u0=.\252\214=\230\316\031\275 a\227\273fw\373=\010\275\235<\202\211\302= \014\321\273\230\177\212=\010\026e=\030\036\\\275\372^\264\275\300wy;\220&\355\275\230\273\311=tRI=.\257\210=\370\217\301\274pl\031\274\300\331\003<\016\262\000\2760\001G<\350\305\337\274\300\022\235\273\361#\226\275r\351\350=\200\213>\273\200\326\266;\000\300Q;\332gN\275\020d\263=\265\204\313\275\241b\312\275\200\267}=\220\356\277<\300\241\373\273\350\r\356=p r<\030u\257\275\242k\313=\2246\177=\244\217+\275<\300\341\275\0004G\271PK\371\275>1Q\275\340\016#<x{\335=\230\341.=\306>\r\275,\337\254=\324\033\265=\314f\031\275T=\303=\360\337\262<\216j\324=\370[\256<\020\361\311<\235c\241\275\344\266\273\275F\032\313=\245\332\007>\212\026\311\275\300\t@<\016\350\207=#\244\375\275p\240\004=(\332\307=\000\3427\272\373\215\357\275\023w\220\275\240z\343<\220\223S=\376!\214=\034\275\253\275\240!\365\275\350\002t=\254\023h=@\315!;\330\332\254=\334/*\275\226\233\370\275\027l\344\275\206q\367\275\020\273\277\275\\\254\211=\0137\302\275\000\366\032\273\343#\003>\220\315\317<\240\264\260\273`\rK\275\357\201\342\275\244t\251\274\252\341R\2754\177\207=\210\372\355=\340\"\303\273\304*V=\366\221\215=\254\375\325\274z\'\224\275@\312\351=D\277\r=\304\332)=\360\233\333\274\256\264\313=\302\353\374\275\240\006f<yc\344\275H\273\300=R\272\253\275\004\'[=0\020\253\275*\215\207=\350|\213\2754\201\214\275\314\017]\275 (\321<\000\0067\273\240\177\254=\026b\001\275\230 \316\274\370\027\225<\274\246h\275B#\005\275\036\336\240=\022\265\366\275\022t\213\275,4\357\274\3707?\275\251\223\306\275\332\330\344=\314\261;\275\350\345\233=\000X\213\272\302\256\354=h\243\326\275\025k\002\2765\225\363\2756\215\376=t\341\307=\030 f=.eN\275\204\212\277=\320\324K=\210\342,\275X\003\216=\000\202p\273X\334]\274\000(2<n\215\256\275<;\245=\354qa=\320\277S<\360\024\224\275\264\010\022\275\224e\007=\244J\003\275\\\316\r=\357!\347\275\026\020\007\275\202\266S\275`\305J=\3567\345\275dx\324\275 \224s=\345\206\213\275\222\242>\275\360\377\314<H\337\323\275\306\350\224=\026:\275=h\222\263<\000gF=}J\346\275\340,\217\274\262R\242\275*\372\360=R\205\320\275\344\027\031\275\253\262\310\275\340\236\203\2754W\275=X\260\037\275\300\337\232<\304o\206=\302\366\250=\236\344\203=:H\230=\373\224\005>\300\250\'\275tvs=\375\243\346\275\300\324R\273\000\254I:\214g\312\274`\346D\275\374\274;=\240\220\252\273\2043\261=<~\266=T*;=\000\300\223=\276|\251\275&y\326=\000\230l\272\342T\334=`f\224<\n\330\225=\362\336\374=6+\300=\030\341\000=P\017M=\223`\001\276R\225\353=:2d\275 \243\364\275\034\351\354=\353/\326\275`\207s\274\032ae\275\026@n\275D\371\314\274 ft=\0279\010\276\004\0279\275\366H\273\275\270|\376\275\300\000\226<\374]\341=\270Y\024\275\260\033\356<\314\271@\275\342yV\275\340\244\240\2730\227\210=b5\330=)a\204\275\020W\201\275\0049\271\274\000\242\253\271\346A\315\275`\311\321=\310\000\242=\226D\337=k\360\360\275t\203\233\275p\327\271\274\207\022\202\275\240\"\252<\240\000\262\275\360w\245\275\264\224\302=+\000\201\275`;W=\266\3138\275\306\366\003\276\350\367B\275lJ,=\220\357\345<\220\033\302\275\352x)\2754\335\335\275H\262\007\275\333\326\271\275Y\327\002>\256\026\234=Z@\373=H\333<\274\372\024\356\275\264M\225\274|\372\341=\222W\350=\373\021\000\2760\256\303<\023E\361\275\320\302?<\00042\272\360o`<\232|\371=F\275\315\2754f\233\275&6\004\276\000p\354\273\004s\364\274xR\231\275\204\363%=ll\314=(D\346\275\316[\301\275t(\353\274N+\354=\303\317\230\275\002h\375=\204\305\222\274P4_\274\364\235U=\226\"\371=\000\233>;\273\023\331\275vJ:\275\033\036\367\275\004\313\002=\034\000\016=t\231\006=\014\266\226\275\262!,\275\356\211\355=\240$(\275\372\321\377=\200*\000\273\226r\323=\240\245P=\024\342\233\275T\002\374\274e\362\361\275\272\004\351=\360%\232=\260\301\365<\246\247V\275\220\344\255<\266\033\266\275\3501:=\200aQ\273\360\004\013\275^H\233\2756U\354=FG\343\275\260\236\335<0\223s\275\210\307\233<vf\323\275\004\t-=\272\005\200\275X,\316<\005\347\002>-P\373\275\363\375\252\275\206\256\357=@\222\303=\334~\007\276\010\216\342\274\270\005\005\276\214\002\373\274\000\214\013<\341\t\370\275\24089=\324\027\215\274p\323H\274\0205\341=\313U\202\275\"\003\212=s\226\322\275t\254\222=`8\251;\010s&=\250\363m=j\021\325=G\365\357\275\241t\323\275\374\321\214\275T\364\260=M\024\232\275@\275\"\273\350\375T\275\372<y\275Bb\202=\364\245\036\275\223\231\200\275\020x;=\216_\246=\372\212\223\275J:\225=\360\343;\275\014\314\204=\306\342\353=\324N7\275h\003c\274Wa\007>\256kl\275\256\262)\275j\r\243=\310e\\=u\277\214\275\272\316\231=\"\216W\275l\030\237=8\254\267=d)\214=xu\376\2750\334!<\334a\006\276\253\325\371\275\366\344\202=\200\271\231=\3404\332<(\303\301\274\200a\260;\264\237\221=$\323H=|\323p\275\202\222\373=\300\3360\273\350e\345\274\017_\006>\366\241\315=\202\361\363=\0322\347\275\216\313\251=\257\224\374\2750k\265\274l&\265=\330x\324=<\2050\275\323\227\374\275\"\207\356=J\300\306=\212\356\320=hs\360\274o\307\240\275}\006\333\275\002u\366=0\320e=\016@\373=\236\024\224=\034\n\252\274<t\004=\246\262\037\275JP\264=0\365W=\306;\217=\0049\002\276U\347\331\275\352\336\035\275\262[\225=\331\342\326\2750:q<\020\262\337=\3309\242=\234\331\027=pPU<\214\243}=@\301p=\326K\352\275\344b\324\275\377,\005\276\300\311\342;\252\017\272\2756j\263=\236\222\233\275l)\010\276\346\216V\275H#$\275\2667\252=\350\326x\274@X\321\273\340\341%\2752\t\354\275\357p\000>\222\237\361=\212\263\031\275`\360\004\274\020*\321<\234~\351=\342\245\251=\216~J\2754c\300\275X\024\301=y%\376\275\350\346\365\274\240\363\244<X\226\256=\030\230\243<\322\241\271\275KZ\241\275\212r\356=e\345\005>\036\222\357=t\342\237\274\014\224\020=\206\313\324\275&\243\361=\240\314D\274\240j\257\273A<\302\275>\252\356\275@.\300\274\000\371\314\272\222r\314\275\305\334\002>\306\325\221=\362\362<\275\353\036\230\275Txt=\322\030\273=hV\236=C\241\207\275\372d\252=\000\263\365\274\n\017\354\275\256x\312\275\340\302*<f\030\221=h\365\314<\346\356G\275 \304\246=\256\014\252= @\260;z\274[\275\256\334\261\2752\"\010\276\3600\243<6\026\235=\2328\375=0TK<\220-\320<\311\\\004>0\260E\274\"\364\003\276\324\330\314\275\365@\372\275\215\354\003>\264\031\301\2748u\252\274\000\302U<\2642\346\274\352:*\275^\316\357=\030\272\237<,m\214\274\303\261\006>\352\276\333\275\014\312\342=\3428\367=p\315&=\330\363\031\275\267z\233\275\333\317\326\275(w\013=6\254\327\275\200\'z\273\300\352\334\275\200\225I=\274z\320\275\252\322\205\275\233\300\001>\246\264\327=6\314\247\275|\372:\275\372m\272=~\201\266\275.\353,\275\333E\002>\347\222\376\275\212g\017\275o\333\003>\000 \3538x\311\223\275J\210\215\275zC\255=\234q\341\275\332\223\210\275lE\331=\252\003\274=\n\203\264=Xt\377<\356m\374=\255\210\203\275\2727\372=0t\324<^\240\363=\3025\210\275:w\351=;\305\001\276NQ\241=\341\257\000>\200\340V<\342\007\366=@b=;\014\332\"\275x7K\275\250\003\310<Pp\201\274\240\007\220\274\364\n\013=D\340R=\030\\\262=\336\306\026\275 \331\246\273\260\207W<\240h\361<D\r\224\275\340b?\274T\022\360\2740\256\030\275\220\375\321=\242\346\261\275\000\230\231<\332\"\255\275\206%\'\275\240\340\262\275*m\253=\350jx=`\367\340\273z:\350=\370\2208\274\020xH<\224\006\271\275\250H$=\272~\360= E\324;\010\327\254\274\300\016\310;\207[\317\275\000\022\027\275\207\223\373\275\026\246\230\275\240I:\275\000\344_9\307\332\002>\250\265\323=` \002<v\220\232\275\022\005\347=\235\272\002>\332\177\376=:\026\211=>\340\277=\030_\235\275\000\313\343<\200\311\261;D\022p=<\306\226\275\310\226\277=\200\335~;h{\272<\010\003\255=\221\'\242\275v\351\367=\360\366]\274\tJ\004>h\326\263\275\017<\304\2750\257\256=F&g\275\270[\204<6\263\271\275\217\242\343\275D6\003=\314v\205=\311\r\210\275@h\003\273\222\000<\275Fw\271\275\034\277\253=\013\320\351\275\354\013\356\275\214\004w\275h\013X\275L=\317\274\374\235\251=:\206F\275F\242\200=\302\270\035\275\343m\217\275\260\272U=\001\021\000>\320\336\202=\364\013\220\275\340\276\335=l2\363\275\000\323<\273\030&\212<L\344\254\275\020\302=\274l\312a\275\030\306\262<&\355\210=\000<\316\272w1\010\2764|.=\240Ks\2750\356\261=|_\207=\340\030\210=\260XX=`lR\275\330\031\177=\025\032\006\276\030\253\363<>\220\261=\330\311\013\275h\234\212\275\336\221\212=\300\220\254<h~e=\324\201H=\240C\214<`\2747=\200\3645;\007M\004>`\375\233\273l\352\236=\330\320\200=0;!<\210\275\r=H*\310=\273g\236\275\272\320\356=\000e&=\212\033\005\275X\322\302<\311!\010>\022w\246=OG\007\276k\n\234\275\364 \234\275\216\275\306\275\020\001\n=X.3\275\316h\367\275p\360|<\376\216J\275`\326\006\276UZ\002>\370\037\030=\312\320\233=U`\323\275n+\260=\232\243G\275\020\362\220=Nz\213=\000\350\365\2720\327\366\274@\263\213\273\020sw=nY\251\275\214\2510=du:\275\205>\335\275\200\247\252:^Q\360=\356\327\352=\337 \300\275q\177\004\276B\204\335=\314r\204=\224\363\014=\276C\203\275\342\223\315\275`\003\337=\272\207\240\275\336\022\374=\344\376\261=<\340x=E\361\352\275\234\322\033\275 \006;<\303\205\003\276\342\004\367\275T\250\010\275\262\206\277=\3208\r<\324\3010=uI\377\275\200][\273\250V\327\275\031 \377\275\014\273\177\275\364\r\010\276\314\342-=:3\355=\200N\225\272\230\341\263\275\300\321\203;\334e\304\274\250\267\242<b\236\342=\250\362\306=\272\244\004\276\372e\235\275j\000\357=\220W\314\275\220\314s<\3309C=\350\242X=\340\272\274<\326\027\366\275t\245\265\275\234\335\307\275T9\253=\220\277\000<\260m\221\274j\205\266=\224\334,=\326X\332=^NE\275\n\242L\275<b =\311\273\215\2758\256\252=D\017\351\274\216\276\010\276<A\024=\225p\300\275\234o\211=\000\021K\273\226\373\233=\200\322\376;\360\353\022=\331f\001>\362I\003\2760|\256=\350$:=\350n\277\275 f\"=\256\331\306=R\261\320\275\355\302\004\276\265\213\001>6\342\202=\214\326T=N\252\247=G7\253\275]\264\277\275h)Y\274\252\214\353=\346\345\374\275\340\017<<\002\006\010\276(\232\337<\014R\372\275\344.Y\275\006\311\255\275P\240\254<\220\200\023<\316\344\243\275\264t\311=*\347\221=\000\006)<\016h\371=\000&)=\356|\216=\031\225\000\276\2227\322=\375\036\266\275\210\333H=L\252\336=Z\267\333=\200r&\273\360M\252=\244\223L=\250W.\2750fB=Xa\335\274\374\323o\275\316Y\253\275>\021\224=\247x\323\275pA\241\274\334\304\006=\000\244\222\273T\234*=\014\212\337\274\317\367\370\275\244\235g=&0\032\275\360\025\216\275J\367\340=\021\'\000>\002\315\367=f\365\267=\221\307\005>\216F\350=\221\342\250\275B.\374=\350\341\240=<\014\202=.\363\231=\022\031\307\275\276\315\257=\270\211\244<\031b\001>\310E\007\276&\350\360\275\240\374\320\274Z\010\236\275\210\2147\275\300L*;lD\266\275\004\327\262=\020,!<p\367\035<\312K\352=@\013\242\273\275`\216\275\212L\371=&v\252\275\004\213V\275F\001\354=\216\016\224\275\361D\010\2764\211\273\274\240\336\371;\374\360\236\275X\003\r=\0004O:\034\244\212=tL\004\276T\210\243\274\354\305{\275\362\233\250\275~\245\267\275V\020\236=N+\241=x\034\331=,~\n\275e\312\364\275\300\331\372\273\024\316\307=u\315\214\275x\237\273=\222\246\373=\010\246\303\274\000sB:hx\r\2757\005\002\276\021\353\377\275\306\240\257=\220s\271<^\021\212=`\265\361\275\360\303\244=\320\200\027<\254`6=\337\351\201\275h\242\021\274 \265\353;H\327\307\274\232\303G\275\264\213^=\330\002\'\274\330\277r=P\337J=P\204\332=0sk<\346\006\373\275\3544\274\274x\253\226\274&W\310\275\325\221\005>\2779\331\275\006.\303=^\306\304\275\232\330\311=L\221y\275\360\311\025=\030Pf\274\0002I\273($X\274\332\205\237=\020\224&="
      }
    }
  }
}
node {
  name: "encoder_1/conv1d_1_2/convolution/ExpandDims_1/dim"
  op: "Const"
  attr {
    key: "dtype"
    value {
      type: DT_INT32
    }
  }
  attr {
    key: "value"
    value {
      tensor {
        dtype: DT_INT32
        tensor_shape {
        }
      }
    }
  }
}
node {
  name: "encoder_1/conv1d_1_2/Reshape/ReadVariableOp/resource"
  op: "Const"
  attr {
    key: "dtype"
    value {
      type: DT_FLOAT
    }
  }
  attr {
    key: "value"
    value {
      tensor {
        dtype: DT_FLOAT
        tensor_shape {
          dim {
            size: 32
          }
        }
        tensor_content: "\000\000\000\000\000\000\000\000\000\000\000\000\000\000\000\000\000\000\000\000\000\000\000\000\000\000\000\000\000\000\000\000\000\000\000\000\000\000\000\000\000\000\000\000\000\000\000\000\000\000\000\000\000\000\000\000\000\000\000\000\000\000\000\000\000\000\000\000\000\000\000\000\000\000\000\000\000\000\000\000\000\000\000\000\000\000\000\000\000\000\000\000\000\000\000\000\000\000\000\000\000\000\000\000\000\000\000\000\000\000\000\000\000\000\000\000\000\000\000\000\000\000\000\000\000\000\000\000"
      }
    }
  }
}
node {
  name: "encoder_1/conv1d_1_2/Reshape/shape"
  op: "Const"
  attr {
    key: "dtype"
    value {
      type: DT_INT32
    }
  }
  attr {
    key: "value"
    value {
      tensor {
        dtype: DT_INT32
        tensor_shape {
          dim {
            size: 3
          }
        }
        tensor_content: "\001\000\000\000\001\000\000\000 \000\000\000"
      }
    }
  }
}
node {
  name: "encoder_1/conv1d_2_1/convolution/ExpandDims/dim"
  op: "Const"
  attr {
    key: "dtype"
    value {
      type: DT_INT32
    }
  }
  attr {
    key: "value"
    value {
      tensor {
        dtype: DT_INT32
        tensor_shape {
        }
        int_val: -3
      }
    }
  }
}
node {
  name: "encoder_1/conv1d_2_1/convolution/ExpandDims_1/ReadVariableOp/resource"
  op: "Const"
  attr {
    key: "dtype"
    value {
      type: DT_FLOAT
    }
  }
  attr {
    key: "value"
    value {
      tensor {
        dtype: DT_FLOAT
        tensor_shape {
          dim {
            size: 3
          }
          dim {
            size: 32
          }
          dim {
            size: 32
          }
        }
        tensor_content: "\000\337G\273\234X\026=\000%M<\226\375\265\275|\"\372\275X$\253\274?\302\027>\320\'\000\275\020h\013\274\312\003\036\276\225:\322\2758x\241\274\365\276\245\2755\031\014>6\027\374=\204\3014\275|\025E\275r\373\364=\030\025\210=\362<\344=\332/\314=X+1\276\205\321\307\275P\322\036<\023i.\276\331R\016\276\3033\242\275\035\013+\276\325\021\036>P\314\025\276Z \344=\364@\r\276\244\364k\275~\240\226=He:\275\'\n\005>\372\255\377=\212\030\335\275\310\'\021=40\221=`\321x=\344\206j=@\361J=U|\035>\0311\323\275\236b}\275\2561\320=\256L\212=\370\031\231\274-\221\255\275\326\240\360=\035\376)\276p<\340<\355:\303\275\202\302\201=\304h\r\275\000\352\273\271\350\016S=\246\365\022\276L\3235=\320}\376<\202\365\231=\320\343\t\274\340\251\243;\360\"V=(JM\275\246\270\024\276\252(\242=\370\223\216<\251s\243\275e\2362\276x}\327\274\000KW\272\245\351\">\370\323\233\274\375\300\022>m\031\303\275v\321,\276e\246\260\275\221q\036>\232\3204\276\320\353\213\274\330\202{=n\253\247=\236N\230\275P\0074=D\236P=\260\"q=zG\214=\354\316\t=\210.)\276\227s\031>(\251\222=-\227\304\275\303\245\324\275\303 \200\275\377J\360\275\305a\031>H\330\357<\244\225#=\\\336\217=\220X=\275\216\337\207=\000o\371\274N&\272=p\362`\274~F\304=\200T\023\275\235\322#>\270+\327<\274\350#=\316\243\250=\255\311\022>Vc\205=\332\210\246=\377\264\000>\000\333w<p\375\224\274w\257\016>@\324\327\274\330;3\275\337Z%\276\016\032\233\275N\224\371=\031\225\'>Wu*>b\206\313=\2564\300=\004\031\223=\300\357/;\340\341y=\036\003\370=\322\342\355=F\273\340=\374\235Q\275V\363\222=\014/^\275\031\331\220\275\363Q\010>\004\321\354\275\256\006\271=\266\005\321=\252(\342\275\000\014\034\273GV\t>\206@\000\276\030t\264\274\360\344\221=\253\2032\276\270\310s=\236.\360=w|\320\275\030\250\303\274L\300\021\275\300-\361\274@\020x=`!U=8v\010=\010t\303\274BH\340=a\330\006\276pg\224\274#\231\033\276t\2127=\231w\014>g>\010>\0327\277\275\301\331\001>\244\235(\275\265\237\026>\250`\233\275@il<\352\270\346\275\217u\006\276\014G\206\275\223\036!>6\373\200\275\363\354!>\2242N=\253f4\276\013J\'\276\032\327\304=3>\266\275*\357n\275\332\267\373=\311\2062\276;!\020>\225<\225\275\374\354&\275\227\360/\276\212\363-\276\250\014\253<\000\204{=\006\001\277=\014{r=\312z\250=\343o\356\275A\201\342\275\222T\343=`e\204\275\026\025\264=\347\305$\276\252\223\237=\253\224\000>8)\001\276\340]\354<\250\3220\276\3768\352=\300ag;\343z\222\275\253M\'\276aX\277\2756g\n\276\030 \201=t\377`=\"A\303\275 \373\023\2766\210\257=\330M\n\276\221\370+>>d\001\276\204\316B=\250T\017\275\224\204L\275\240\325\222<Q\031\037>&\304\224=\366!\345=wZ1>p\324\021\274\034\227`= \245u\274>]a\2751\r\364\275\320\354S=\340\207\212\274\024\335\022\276\260\274\303\274\030<\217<\340Q\024\274\322+\216=\272\364\244\275\214C[=\363\311\237\275\006}\337\275\026\366\263=\321\257*>\000\247\227\274\357.\023>\240r\"=\027\272$>\252\002\025\276p\265T<\251\231 >\027z\006\276\020\222,\276\263&+>Z\245\264=x>\213=\212\344\201=\022\010\263=,t\002=\240`\243\273a4/>PR`=x\006\250\274\000k3<\350\002a\275n\220\021\2764\266q\275\310\022\356\274\320\220A<\350\247\347\274E\214\034>\030\257\302\275^v\016\2767A3>\230\362\021\275\275<\004>6C\372=\"\\\254=\222\356\231=\376l\366=N\332s\275p\201\241\275\360\277\364<~\023\223\275\357\177(\276hf+\276\330QJ=\332\323\205\2755\255/>\240\322\271\273\010\330\377\274\320\351<\275?\355\017\276j;\263=\200\210\264\275\036\357#\276\247\326\002\276En\357\275\ru\206\2752\224\245=\034\326\000\276\325\270->\234ys=\3323(\276\000G\354;\322s\254=\211\227\010>\300\257&\274\220\262p=\361\306\036>\353d\"\276\000\256\335\271v\367\310=J\354\320=\224\306r=\346\024\365\275\000\300\366;\246\213\234=0/\035\275H0\350\2744N\'\2751\267.>\274\353\363\275n\260\331=\236\313\372=\006T\372\275\207F\256\275\3014\032\276?\037\023\276!\377\276\275.\377\253=\310\206\246\275\320\342\222\275m4\023\276\376g\337=\004Y\300\275[\020*\276<2\032\275VW\315=\014\275\216\275\260G\350\274\2707\307<,7C\275\263\321\034\276\000\020\302:\324\225j\275\234\277\016\276\370\244\014\276\320\014\354\274@\003s\273[\342\303\275]\331!\276K\344\373\275\224\213\024\275\033\271\261\275o(\014>\255\033->OS\017>\350\200/\275\2631\033>xJ#=\255\020\231\275\335y \276\332f\372=\'\372\210\275\323\010\331\275\326\205\275=\240R\021<\300~B\274`WB\275W\234\227\275\013m\004>\201p\003\276T\323\'=\322\331+\276U\256\036\276\325\360\003>\220\350\204\275:^.\276\033n\013>t<\r=Z5\332=\302\031\027\2760bQ\275\342\303\241=\357\274(>\320\232\226\274\363\004\337\275\246\374\311=\225\377\201\275\014q+\276 \344\036<.\234\230\275BQ\277=\346]\367=\341<\244\275\343Q\010>P\342[\274\350Ob\275\326\005\230=\004>m\275@\225\223\274\211W)\276\240nH\275p5\300<\263\200%\276\323\230\023>\254sp=\0202\304\274\200\214\213\273J\251\312=p\316\201\275\300\237\356\275\360\235\006\274\367\030\016\276&\365\354=\244\261\024=C\246\322\275!V\010>^\332\247=\200d}\273\336\230\322=\026\357q\275 N\346\274\205\265\027>\350\375\327<8C\347\274|\307\273\275\004YE=M\273\315\275\253\256\023> #D<\340\250E=\227a ><\354X\275\244\226\"=\200%Q=`QG\274\342[\233\275G\233\265\275I\032\035>\246\226\230=\300\351<\273d\350\272\275,\017}=~D\230=\'\214\200\275\016\211\243= wI=P&-\275\000\3403\271B\351\233=\260\253q=\330\202\"=m\177(>\276\024\251=\236\235\333\275\202\220\016\276\330&:\2750\025\355<[\263->\274\241,\275V(\361=\371}\272\275|\267q=\300mO<xfV\275\300\"\274;hs\372\275Z\303\352=\2461\371\275\230u\355\275\340\215\360;\030\207\"\275\261\352\020>\034Oj=\016&\247=\211\017\364\275\204v\035\275\324\241\007\276\000y\317\275\032\247\347\275\213S\023>\222\363\271=\354A?=\310\020\242\275\254T(=P\221\262\274\312\260\230=\244+\337\275\261\212\t\276\202z\266=\310\207\203=\220\277\353\274\242\223\212=\344\327,\276\227m\215\275\335\204\001>\n\336\222=\220\205\257\275]\200\223\27508\204=\211I\224\275\371\335\247\275 \330\311;<\205\320\275\240\2756\274\370\226\201<b\342\364\275\354\260\021=dZH\275\243\361\023>p\235\021=Y\230\304\275\341\002\016>n\332\355=\260\252y\274\355F\014>\204\264f=\240u\235;>\361\275=@\253\030=\\\373\216=8\254\307\275H\211\034=*\266\022\276\036~\353=\220OB\274\250QT=\255:\257\275\364./\276\264&\200=\343\362\036>\204\026\271\275\362\350\036\276\277\027\004\276\300x\325\273\007\241\'\276\346\347\376\275\013Q.>\240\227e<\271\322\315\275x\256 \276\255@)\276\200\337Y<\357\206\026>(p\277<\335\227\341\275\326\276\216\275\246H!\276\242:\336=\275\037%\276p\313\026=\236\352\245=s\'\315\275\261)%\276\2621\360=?C\016\276\242\356\274=\211\307\003>;\315%>\347\274\220\275,\202\371\275\230\335\227\275\323\313\240\275\251\361\005> \330z=&5\373\275\260t\212\274I]4>\013\"\027>\204\334\310\275\340\203\020\275\316Q\347=\204\321\273\275\257\2160>\362=\373=\246s\341=P)\022=n(\016\276\260\"h\274\001\\\033\276h\261\320\275ep\032>Jw\200=\006\210\252=@c\"\275(f\355<\370f\277<\264e.\275\271\'\277\275\014\344==\010\323\206=\240\255\001\276\250\177$\275\312y\246\275\360\210\307<\200\357\355:\332y\201=\032u\303=\026\371\232\275\201\035\n>h\370\247\274bb\341=\332\343\032\276k\250\330\275+\n\035\276\376\266\312=\232S\253=SK\340\275Rn\377=\220\242\250<\236\261\275=\346G\355=\250\003L\275\001[\">P\372P\274Hb\313\275\306\020.\276\231\230\307\275\2057\000>\202P\244=-\336\200\275\340\351\243;\324\013\357\275*\030\017\276H\352\343<\200\037\357:\201y\004>\260#$\276\000,M\273\240v\265\274\330\021*=6\231\204\275\344\3520\2758\327 =\004\215n=n\315\334\275\300\221j;;\330\013>\346\023\377\275b\347\264\275FN\332=,\014)\275\304Q\205=\335\226\325\275F\331\354=\262k%\276\025\271\022>\303\237\343\275\3579\334\275\nS\224=w\036\024>\310\366B=\204\210\343\275V\000\243\275\361p\353\275\366W\016\276h\003\300\274d\214\211=\240nC\275n9\231=p\244o<\264\003\252\275\316B\304=\316K\365=H-\261<\310\r\313\275\267>\006\2764}%=\267\373\342\275q\221*>\020\244\261<@<\273;\360\370\220=4\267\021\275\"\225\370=\026\304\231=\332s\303=N\327\230=_\n\035>\311\0331>\300X\031\275\322\207\303=\030{#=\017\260 \276\342\204\006\276\245\022\365\275,\212\001\276\377/\027\276&\273\205\275\344GG=BJ\377=\204\t2\276\267\332\'>^\236\261\275\002\265\307=\214\355\347\275\270p\343\275\326\212\364=\210G<\275>\243Y\275\300C\240<\317\340\016>\334\010p\275\305\305\337\275\026T\376=<\322\t\275\364(N=\223\360\353\275u\017&\276\301\336\001>\361;\000>\030\362\322<\362&\310=\334\320\003\2768\013\014\276\224H.=p\036:\274\254\221\222=R\032\315=z>\273=\030\242\233\274g\342\313\275\330\227\270\274V:\364\275\255\3773>f\006\017\276\220R\331\275XD\253\274\004\0331=\320~.=\307W\036>P\226\226\274(!\342<\376J\210=f ,\276A\341\001\276LX\306\275~[\362=\324#?=\030P\313<\366\037\331\275\377J\036\276\361\271\031>By\226=\022h\242=\0163\377=*\372\223\275sH\027>\345\220\270\275\335w\352\275G\264 >\265F\n>e\037)>\230\340q=KV\254\275\330\221(\275\005e\246\275\321)\034\276~\220\312=\271\030\371\275wG\326\275\367\030\251\275\334\220\267\275l\263%=\002\321X\275@%\002\2747n\026>R\277\312==\310\001>\357\037\206\275\370\340[=\000\261t:\010\247\222<D\n\006\276g\220\265\275m\213\001>B\262\342=uB)>b\220\002\276\026\026\263\275\330)J\275\250@t=\240\221)<\300\305f=L\342,=E\355\037>\370\213\013\275\306\340\370=\216\020\301=\317-\002>\245\304\260\275\353\235\027> \272\032\275\350\256\362\275\034\254\024\275\026.\255=\002\025\014\276p\177\206=\316\340\334=v\317\303=\332\376\315=\253\211\n\276\260\310M\274\240\340\257\275\244\010\275\275\016\273\202=`\201\265\273WN\037\276+d&>\324\214\227\275\322\240\275=j\322\277=?\326\017>\262B\247=0~I<\307\240\217\275L\355\361\2759T\013\276\257h\242\275\000\320t\272\251\210\335\275\000\355\335\272v&\204=\n\304\313=\232\270\326=4l\014\276$\'*=\243R#>\245\201->`/}\274\314\367 \276\"\241\240=\210\211\213\275`\224$\275\241\017\315\275X\200\023=\3518\017\276B\357\234=\204P\030=\224\216\215=\372\367\370=Bj\303=\212M(\276\253\201.\276\236\223\236=t\"\037\275\260\n\351\275\264\013\252\275\336]\203\275C\250\231\275\363\253\007>\320\360\206\274\017\016\326\275\346\255\020\276\246\361!\2760\027@<\374\344\214\275\020h=\2740\206r\275\256=\'\276\033\317\036>\034$\326\275h\306\303\274\354Ub\2759\316\027>p\266[<`\221\315;\010\324\306\274\252\346\277\275\224\033|=\037\223$\276E\311(>\220\200\000<\205\342\010>\335\353\032\276\010\251\206<\340\027\360;&\252\234=@\005\304<\224v#\276D\357==6S\214\275\247\335\n>;a#>\374\233\017=h\367\004=\352\345\350=tzO=ET\033>\234h\250\275pM\245<\262\221\307=Y\341\017>\010\033Q\275i\2452>\257],\276\232\223\340\275\320L8\275\361\r\007\276\256A\014\276\001w\023\2767\237\260\275\014\2559\275~\205\363=\275F\212\275\271\356\222\275\202r\301=\236\304\354\275nR-\276\376G\023\276\306\221\361=\216\r\t\276]\327\006>8\017\373\274\273\200\031>\202w\253\275NE\376=\232\217u\275\002M\235=~\362\276=CZ\241\275\300f\322\273,\265\007=\006\374\315\275xh\274\274\365\362\002>\211\332\214\275\332\342\306=\004\224$\276\210R\271<\000\006a=\320u\014<\025\310.>\232\263\210=W=\013>\264\313.\276x!P\275\300\323\234;\240\255\261\274\370_ \276\200\214\034<\214\372\372\275$K\001\275\240\227\024\276\206f\214=\016v\336=\000\225\000:\207>,>\\\201\222=m\334\010>@\264^=\004\034\261\275\024\204\035\276\274\211p=p\226\033\274\237\034\016>\372h\241\275T\305\250\275H\247J\275\251\307\345\275\333_\005>\344$\331\275\331\365\032>\377V\">Q\247-\276N\272\326\275\0003^<\212\331\002\276~g\274=\247\006\301\275\263\201&>/m*>\342^\260=\313\004\036\276`\347\314<\220b\037\274\314\371\004\275 \250\372\275\214\267b\275L\320P=\354\346\020\276\\dl=\032*%\276=\3102\276<\361$\276\302\271\274=\233\274 >\302(\236\275\366\311\220=\010G0=d\376]\275\027\212\037>\360<\032=\250\256*\276sK\034>\211\353$>\341\367\000>\020\003\347\274\262\207\237=\2404\200=\207)\247\275\257\177\315\275\346\275\272\275\033\355\027\276\220\273u\274\271\271\034>\2635\002>\200\027}\274\353\003\024\2760p~\274@\016\217=\021\335\'\276B\376\313=2\367\224=\312k\256=H\226\301\274\260\225\370\275\344\033==fl\375=\212S\"\276\000F\263\271\300\310\007\276\272\304\240=\254\322R\275\026\344\275=C\321\305\275\260X\010=\370N\025=\372{\251=\270\024\"=\313\005\311\275\353\307\024>\000\304\256\271\302\274Z\275\000\232\222\273 \251.\276{N\225\275\000\340*:\256n\314=A\000\004>\216\215\316=i\244\211\275\037M\004\276u\261\313\275\036S\r\276\253\220&>3\352\004\276\255\2763\276BP\254\275\374d\347\275\031\237\030>\210\365\242<\203\377\275\275\007n\201\275\225#\005>\314\334(=\272$\352=\212X\230\275\357:.>\266\t\247=\020\345J<\220\225\236\275\346@\303=\263\302\233\2755\021\313\275Z\207\243\275\221\314\027>\276@\t\276r]\312=r\227\204\275\2745q\275\374\306\027=\000\247<:\023\255\'>\360\243\005\276\250\025\330\274\300\005;=\365\234\000>w\037\234\275\350-\307<@=\357<\001i\312\275\304d\363\275\036v\236=\242\310\327=s\360\242\275a\224\017>\370\267\264<\230\336\307\274\340Fn\2756\304\305=\335\236+\276\006\271\367=`\333\207\273F:\302=Xx\235\274\270\312_=XS?=Js\274=\274i\n\275\240\325B=\201\300\033>\200\211a\273\253q\030>\200@\017<\340X\356\274\020j5\275>\377\302\275\330\364\377\275;\374\210\275\007P2\276\276K\253=\320\202\'\274\200\202\232<\346\243\314=2=\263=\3313\005>pos\275\324\275\036\275H\374\032\276\324\206\031\276U\"\025>\260\332\212\274\013`\030>\304k\207\275\023F\206\275\270i\300\275\235\277\300\275\354\314\005\275$\004\201\275\305?/\276\000\'y\274\305\201\003>\014m!=\006\200\334=t\377\221\275v\334\231=\000sT;\313\226\027\276\316\320\336=n\034\331=\267k\023>@D[\273\324\3308\275\223\333\001\276\305S\213\275\350\221\r\276\367\256\343\275D*;=\334\177\216=\206\023\340=\372\353\322=5\242#>\243\010)\276\200\267\007<\210\030\344\274X\001\241<\020\321s\275\200\035U<\034\200\010\275\266\\\245=\300\034\021\274(U?\275t\263)= nh<\377\311\001>`\215\200\274\256\004\302=\323\014\377\275d%t=\221$\n>i\365\021>\034\346\256\275b\305\t\276\225d\022>0.t=@\232m\275V\273\256=G\261.>\220\tu=&!\010\276&\344\366=\200\\\034\273\200\010\223\272\311\261\004>n\341\275=\274\004@=z\272\336=\n\322\335=\235<\002>\263\360%\276\220\025\222\2740L\346\274\314\203 \276\3261\332=2\377\340\275\304\375\037\276\260\212l\274\306\373\244\275*\305\334=@\026\020\274,\214A=4\025 \276\024\301\n\276\325\252\005>E\201$>8\320\314<P\207\331\274\021Y!\276\236\021\270\275\350m\224\275\340\250)\276\343\340\315\275\301\354\037\276gb!\276@\021\026=\354\3701=\2721\356=X\252-\276\330\205N=L\311\372\275 \270\n<5^\034>@\rq=\370\306\205\275t&\367\275\260B\032\274\220\356\000\276\250\030\374\274\2644{=O\256\032>\347\223\037>\020\204n\274\360\033\270<m\213\n\276\220\025l=\032~\356=\020\310\272\274N\000\361\275\362Q\325\275\302\223\235\275\262\020\320=\014\350\"\275s\331*\276(\337\303\274bU\234\275/Q\005\276\217\007\027>\200\272\334<d>\273\275@\010\212;JG\337=\244=\310\275\030=\224\275\256\346\304=\216\260\327=!\250\037>|\250h=\347=!>\214\3358\275\271\367,>n\215\211\275\230\362\255<WU*>\205\030\004>\250^\302<\323\273\036\276\313\216.\276\006\234\333=.\254\223=M\275\n>S\021 \276\034\035\243\275J!\335\275o6)\276\360\226\246\274\\\036\251\275\004\320*=\360y\266<S\352\373\275\026~\207=W;\007>\344#E\275\242\024\272=\206\245X\275ic\013>\215\360\023>\000\372\2209\260\275u<\227e\001>\244\037\207=hZQ\275\351\014\260\275\354\334\224=b\333\363=u\332\260\275*n\226=j\033\377=P\266\252\275\201:\004>\367$\024\276w&4\276\205\316\023\276^h\234=\333\300\252\275`V%<\212+\331=\266\263\340\275,SW\275\324\244\377\275\334v/\276\242\346\304=\260\n\213\274d\355\217=\330\245\000=\312\261\361=\214Z\004\276LXa=4\256\"\275\\\202\304\275\310*\342<\312\373\242=\264JF\275\241(\345\275\334!\t\275OR\234\275\014\013\035\275\222^\323=\017\367\013>!\305&\276^\354)\276m\325/>\363\003\027>\336\242\314=\337\2240\276v\')\276\310\335\210=I\366*>\315\256\320\275r.\357=x\375\036=x#\212<\366p\347=\200\273\275\273J(\267=\333\316\001>\373\377\026>\261\273->\360G\225\274\202\331\324=\360\346\322\275\375\t3><I\270\275$\355i=\264H\363\275~\304\236=\272\326\376=\334\274!\275\322\006\037\276\230\223?\275\010x\257<\323T\014>N\353\276=\270t\023\275\000\313\376\275\200+\210=J\315\216=\000\310\302\272N\016\257\275\244\232\216\275\317\342\233\275\200\337\371\272\3107\236\275D\345\321\275(q\212<\263\3732>\372\231\002\276P\031\007\274\264^~=\367b\376\275\014x>\275\232R\260\275\245\3472>\026M\270=\246D\016\2766\300\241==\217\336\275\021\n\032>8\221\245\2754\025\204=x\322`=js\337\275Z\324\262=Vw\226=\270$q\275\352\001\031\276\010\351\367\274\240v\026=XJ\265\274\224\233\027\276\200FI<\330\\L\275\364\210\n\276\311~\n\276\020W9<\316f\242=\030\253\375\275\300\356\236<Y\305\261\275\346X\207=\203[\'>;*\027>\204\3117\275\322\006\232=\304\004v=\320Q\010\274\220\226\327<s6\202\275\2541\230\275\263\267/>\323\302\340\275\202(\234=\364\240-\275R\271\303=\207a\303\275\002\336\337\275\210\347\376<\346\264\242\275~\033\236=@(\252\274\306\001\201=P*_<)\342!>pl\366\274\226\305\323=\367\315\224\275\366\265\225=\345\364\324\275f\314\276=d\272\233\275\270\017\317<P_7\275\226\270\345=N\004\376=Ot\314\275\366W\231\275\343o-\276\272\252\342\275\374\010#=V\227\351=\372\370\007\276\266(\316=\235\331\250\275\366\243\301=X\031\271\274\210n\372\274\340\302\337\275\032@\203=\307\232\267\275\340\205Y\274y\204\030>\306\320\255=).\337\275\200W\331<\3600\372\275\333s\017\276\332\211\300\275 \371\231\274\3228\353=k\365\017>\036\003\230=|\215p=\327\"\307\2753\201\240\275\257w#\276D\241(=.\224\332=d\242`=o+\033\276R.!\276\200\202h<\344p\031=\202w\366=\335\363 \276\250\377\324<\360\025\317\275\341\201\235\275\235\241%\276\020l\222\275\362\335\326=?\235\027\276\226\351\307=\320\000\301<`#\365;N\213\315\275\272+\326=\334\220q=y\257(\276@\321<=\010\226G\275\"\301\331=\240\245{\275\250\275\004\275\304\223\301\275\234x|\275\026\025\331=\222F\246=\021\302\304\275\177e#\276\340\220#\276P\343\206=\364X\221=&S\306\275\371\250\037>9\371 \276`\357\367;\332\3123\276\300J\035<H%F=\312\034\366=\000j\241:\3665\313=1\265\032>T\010P\275\024\377\'=\026\275\254=\352\255\335=p\377j\274\346g\332=\240\363M\274\252\356\355=\020v\276\2750\364X=\310\3306=T\240\204\275\247*\014\276P\326R<e\246\033\276\r\221\033>\373\366\r>\202\206(\276\200\3439;\262\215\352\275\222t\334=\217\023\033\276\010\231\347\274(9U=\200%\024<\375\371\023>\364eB=\327H\377\275\260\360\224\274-e\035>D\222s\275\000\236\014\273\030\017\355\274\220s\r\275\367\353$>b\004\345=\010\215\201\2752\214\225=Lj\221\275\030\270\340\274a~\216\275\000\320}9\207\036\273\275\201\023\262\275`Vh=\342\317\277=f/1\276\005$\370\275\200\253Q\275\331b\342\275N\007\204=\023\331\014\276d\245\017\275\254~\001\275\000V\200\273T\323*\276T\021J\275\376\242\244=rM\372=\300\016\022<\304\210v=\240\017Q\275\310\201\006\276\244\207\373\275H\326\346\275\312\273\303=@\372\021<h\233\017=\377\372!>\247\3724>\000\354\\\271\216\233\330=\366X\323\275\256 \224=`\325I\274\371\2200\276\021\254\030\276\271\0372\276\304\227B=g\376\350\275\265\243(\276\342\307\027\276\3326U\275\320\224d<\177X\003>\373g\351\275 \334\000<e\342\341\275\273\002\032>\366F\312=\350A\324\275\367\216\032>\240\354\224<\370\272\025\275\000\254f\273d\257?=\220\n\223<Y\366\335\275\260^\t\274\310\t\275\274\345\306\025>)\265\t\276\'\370\271\275jw\313=\300\212F\273\250\255\315<8:6\275\200\3669<\366\316\342=\210\200\305<\374H\306\275\374\272|=\016\335\251=\327S\254\275\367a)\276\303t\004>\013M\025\276L\353z=.H\310\275#!&>P\247\210\274}T\263\275\320:L=pP(\274A\350\252\275rb\250=^0h\275\244\322\225\275\357\360\263\275hY\335\274\263\263\014>\362\365\346=\276\\\271=\236\321\346=\273t!>o\367.\276:\223\272=\274P\013\275\274\263\005\276\022\274\266=\334\201h\275\334\336/\275!\240\037>tJ\037=\330\365\'\275\250\027\254<\200\361\331\272\311\207\244\2758\331\033=p\024\341<k\005\031\276\204\3333\275\350\016\341\275\266\335\204=\201\213\030>\246\246\234= Q\207;a{\023\276\252\355\t\276y\031\251\275\316\340\251=\014V#=\242X\023\2764@\t\276\30007<rE\307=\320\036\303<\177U\374\275\261f\026>\235-%>\020&Y<Ew\r\276\377\257\014>\020\261\241\274\000T)\272\331\234\n>\277\207*>^\230\351=\262\007\326=\024\030~=q\266/>\035\253\006>p2\237<x\265\342<\240\232\311\273\273\276 \276\250\241\262\275\3078\263\275\360Tv=\220*r=\336\210\277=\024\206i\275E\245\'>\214E\356\275\270##\275\225\007$>\000\313\013<\260\004\004\276Dw?=\317\201\304\275\250\216J=\340&^=\330Y-=#\361,>\240\036\372<\310n/=\371}\034\276\'d/>.`\253=\374!\021\276\343\222\216\275\267G\034\276\351.\r>\302\305&\276\2034\003\276\330r\345\274\010\247\000\276\007\002\266\275\340c\361;`\0040<Lt\r\276\177A\021>\260\253T\274s\322\036>\333\374\234\275\306\277z\275h\302\353<\300\201|=&83\276\360s\021\275}x\351\275\374\351\360\275l\0036\275\212N\037\276\242\337\331=&\302\337=:\307\365=\260;\002\276\207\375\257\275@^\223;\370\320\357<\350,\305\275`Q\246\273A\3010>\300^j\273\254\020\352\275\000\345\246\272\037n\017\276v\220\324=\030\206\325<\230z\250\274\210\013\223\274|\260\214=8\223\177=<\357\221=\240\326\310\274\200[[;\342\300\213=\211)!>\223W\">\000\016 \274\310\032\000\276\246_\304=*\234\336\275\356\340\233=\212\351\344\275\300\223\367\274\000\225\271:\022]\326=\250#2\276/\203\033>\005\244(>@\247\r;\3477\026>\371<\030\276h(\273<\224R\002=\363\204\014>\243\213#>\272\"\320\275\032\206\241=m\016\n>\212\036\017\276a+(\276\200\\\005\274\303p\364\275,L*\276%:\003>pi\037\274\004\340O\275\317\337\000> [E\274\306\347\026\276\227\205\021\276\340a\324<\037\t\245\2756Q\342=\315\203%>\255/\035>\016\357\205=\346\351\203=\350H<=1\214\005>\316\032\223=hT\\\275\326e\300=R\213\337=\000\237I\275\\\027A\275,\340\036\276hg\363\274x\267\375\275\002\376\304=\376\036\320\275pr\017\275@\rb<\364\262\215\275\240\262\205\274HB~=\200*\216=\250M\021=l$\202=\t#\362\275(\335\241\274\345Z\001>\370\307i=\030j\005=\301e\317\275\016\271\035\276\334\217\216\2758\370.\276Td\205\275\251~\306\275{\233\025>\272\336\227=\240v\333<\022\345\376=\350*\025\275@\340{;\260\210\373<\037\266%\276\224!\031\276f\336\002\276\246\272\355\275\352m\353=Y\234\t>LL\210=*A\007\276\320\334\005\276\207\332\020>\000\006\2359\310\032\325<S\3652\276\256x\301=9\252!>\242\263\352\275\234\000\221=qk\035>\330!\245<\242w\306\275H\003P=\274\361\010\276\210\016\347<\3761\324=\362\331\365=\260\376\341<\032T\017\276,\304\030\275\016\242\\\275\320u\250\274 \320\367<\250\n\243\274\242\350\371=\304\250\020\275\270R\r=\330&\t\276\210X\234<\223D\026\276`\246\255\2730\301\323\274\344>\000\276\014\223.\275\370\005\320\274\360\3555<\257\201\020\276\364\341\335\275\014H3=\310\007\330\274\370\215\212\274\021r\021>2b\345=`D\320<\315<\023>\210\002\"\276\010\262\365\274\351\242\036\276\227\227\264\275\226q\232=mi\213\275\342a\300=\217\221\003>\271\245\340\275\007U\007>\315?0>\352(\355=\353e\001\276\271\252\213\275\326}\006\276<A#=\324\217\207=\250H\273\274\372\270\212=\276?\314=P\026J=yt1\276p\021\035\276\222\201\242=\204\3662=Z\305&\276\022\271\342\275\262\336\250=\331V!>\200\224\334;\240R3\274uP\007>\177z\027>\037\263\002\276@\260\311\275\'\325\014>\227./\276\276\017\211\275\354\205\034\275\253w$\276\321\350\032>D\331@\275\200\031\201;\313`\'\276HY\236<\326>~\275\320 \350<=\306!>\034\021o\275\3300E\275\017\003\304\275\317\002\233\275e\023\214\275\300\300T\274\260\370}<\000\220\253\271\322)\246=d~\000\275\021\372\004>\261_\006>\347\356\021>\201c \276\251\n+\2764\027g\275\324\303\026\275\010@O\275\367c\003\276\203\334\315\275Ha\206\274\204\212\016=\340N\244\274.\240\203=pn\002<\300\231\026<\020Jo<\031\252\032>\345\232\026>\336<\330=\360sz\275\360\026\244\275\0003`\274\003\001%\276L\013\032=\0328\036\276%\352\001>R\002\253=\341\037\324\275\0009\r;\256\252\322\275&\334\355\275;\236\035\276\234\016\032=l\207\005\276sp\203\275\310&\301\275\222f\372=\320]\r\276\233\005\256\275\213\246\350\275\301\333\r\276\030\216\355\274`.\031\274\r\247\302\275\302s\231=s\273\013>\330>\217\275\\A?\275\255k\020>\360\352\357\275\210\330c=\237$1>P\200\231\274\n\376\242\275\213@\007\276X\253\364\274h\3312\276\020~p\2750\363\200=H\211@=\376\323a\275\321b\240\275\3252\020>\271\317\034>(\"\225=\257\224\020>;\2451>2\230\031\276\217\2322> \200\377\275\272)\374=_\010\014>\334\004R\275a\306%>\232C\304=Z\024\260=\363v2>B\332#\276z<\272\275\272(\223\275\364nx\275\020\250x\274\370\270\210\275L\303W=\010;G=\360\2027\274<O\035\275\003\025)\276\340\324\247<\021%\341\275\242\260\267=\256\317\330=\023o\004>\2401><.\363\244=VC4\276\r\207\033\276\222\342\254=e;\">\300\341o=\000y\330\273\226\274\215=\"$\202=\222)\367=.b\004\276\255\247\r>\243f\030\276tG\033\276\232\007\264=\030K\364\274\324\261s=\362\353\277=\340\262\363<\310\302\017=~J\344=\246\207\272\2753L/>d\235\210=\"j3\276\300f\220<(\230\212<\224\005\300\275v\233\345=pqw<\260\323\020\275\212I\370=\370\021\307\274\354F\324\275\363 *\276\200ZB<r\200\241\275Z\341\337=8\314\312\274@\350\217\273\353\2264>\200\342\336\275g\343\025>]\3531>\243[3>\200t\361\273v]\031\276x\255\375\274\2148\037=\0227\352=\267\177\307\275R\275\025\276:\271\361=\001\317\032\276\364\370@\275\2201\007\276qo\020>\252\013\'\276\321\266\024>\326\266\337=h\3741\275\300\273`=\266p\303\275\220\304\346\274\2450\331\275\014\027I=V\323\202=\304\274h=\016\321\220\275\254\314\007\2768\266\235<\240\354\227<\252\024\237\275\330J`=6\206\221=HE\025=\236r\256=\000|%<\316\261\r\276\211\013,>\205d\306\275\342\354\021\276A[\031\276\256\324u\275\342\210\303=)p\010>e)\342\275\242\252\336=\305N\010>\200\222\327\273\322E0\276=^\330\2755\277\033>\264\230b=f\371\307=r\216\233=T\313\010\275\201\271\333\275*\344\317=\330\252\233\274\350\321\274\274\016\302\271=^\210\271=@v3\273\254\213\027\275\306\254\272\275\250\311\200<\200\204\016\273\231\377\037>X|\335<n\330\311=\311\274)>\010\270\374\274\322\275b\275\341t\321\275\004\'\r=\276\273\033\276\232D\253=\224i*\2751D3>P\t:\275\022\020\325=r\014V\275\312H\354=\212:\346=p\274\346\274>\\\001\276D\332\004\276\360s\031\275~\003\241=\3066\337=9\2734\276\036m\272=x\346\"=@]\013=~7\014\276\263 \340\275\020\260o\274\364\206,\275\023\354\000>\232\351\023\276\375\257\270\2750\345\220=\000\332\007:\336\226\226=\024\316|=\3106\225\274x\024]=\202\302\270= %\277\274\242=\234=\230\363\022\276g\332\002>\357\307 \276\202E\002\276\177\035)>\354o\034\275@H$<+\261\000>\204N\"\275X\233\326\275\205\243\202\275\260\245\355\274\330g\217\274\000!]\274:\315\273=\201\2110\276\210\024\350\274\014U1=\362\250\n\276E\2520>\374\201H\275x\245\207<\235\257\352\275`/\224=O\261\233\275\026d\274\275\010;a=p\356\002\2743^,>V\024\357=\250\373+=\324+*= \355c\275\"~\023\276`\326\244\273l\346\266\275\260u\356\274\200\375\351;4c\310\275\333\310\027>5\336\017>%.)\276i\223\033>R\347\205\275\025\232\217\2751\274*>$t\302\275\324V\005\275\362\016\'\276\276u\264=\302j%\276\256\257\274=\260\315/\276\212\302\323\275\364\230-=o\344\014\276\307J\025>bP!\276\210\355+\276\362\230\247=\211,*>\275f\030>\374N\014=\376\233\347=\204\\4\276\321z\023\276\206\"\331=\357\215\n>&@$\276\246L\241=t\340\r\275u\376\025>\222\222\002\276yu\020>\300.\016\276\366\330U\275\247r\004\276\265\235\265\275\273\257\037>y4(>\314|\224=\263;\026>Y^2>\000\177\325\2752v\251\275\224\360\211=\330\350\212=t4\323\275x\235\033=`\014 \276\330\221\302<\300\2540\27304\272\2747\014%>:\225\311\275nU\302=\211\277\026\276\360\233\216<@a\330\274JO\260=8V\235\274\000\265\372\274\230\030x\275\350<\n\276P\324\270<\320A3=\220\321\027<\260 \r=\355\246\021>\204{\005=\355z\333\275y\250\332\275\021\247\014>,?\t\276\332x\360=x<\333\274}T.>_\302/>\002\316\323=\024\003\n\275#k\304\275\010\004\211=\331\256\351\2755\276.>\233\033\026> \001\265\275\200\363\334\274\216\323\302\275\327\016\277\275\005S\032>8+\273\2746G\255=&\230\351=\220\363\226<z\316\033\276S\377\351\275\326>\263=\326\276U\275\324\336\326\275\\XX\275\204( \276\334\205\241\275 \340<\274B\316\004\276*V\303=\331\256\026>\354\370\017\275\253\266\027>N\323\362\275\036Q\240=\000\322\330\271\242\226\322=\276\033\353=R)\355=\000\366\013<\222-\216\275x\324c=\200P\324\273\356\344!\276\034\325\216=\036g\346=<[\272\2755\002\036>2\342\237=\024\314,\276\233\262\323\275\342\223\036\276L)\024=k\272\222\275\206M)\276\235\330\006>\235\310\035\276H(\202<\262\211\007\276J\001\367\275L\t\303\275\t\316\033\276\357\301\032\276\212:\315=\000(\274\272+\027\022>\002\177\317\275\336\t\266=\"\231\332=b\376\370=\362\n\356=\326S\207\275\363\263\023>\274\\`=\215\220\023\276\231S\037>\034n\261\275X\022\344<\246\300\260=\361\262 \276Z\374\270=t7%=\345\r\365\275\366.\243=l\256n\275aH\021\276\2278\306\275\3627\024\276\032y\355=\356<\257=\360\370\022\275\230\346?=/\245\034>\017z\224\275\345\324\215\275\252\376\263=\357\202\236\275\212\031!\276a\321\321\275\2226\232=\247#\001>\2269\344=`\3027\274=\017\002\276z\315\317\275\023\232!>u\033\000\276\314\177\215\275\350\366\267\274\340\323\036\275=\205\027>\020\374\277<H\036\232\275\312\035\302=\340hN\274p\313\314\275Z\265\352=\2463\222\275:\035\262\275\215\364(\276\276\261\224=c\317!\276\374\372\363\275\272L\001\276:w\226=\314\365\'=\367Y#>\277\344!>9Q\344\275~\206\032\276G\252\n>\2044\035\276{\272.>T\265:=\000\220\335\272\213{-\276\377\014\n\276\005\030$>\340A\247<\222\230\200\275O\344\004\276O\013\016>`+\342\273\354\220P\275\231\266-\276\231\331\'>\324\233\240\275\230\017\030=\342\251\233=\206\312#\276J;[\275P\307(\275\363\317\027>\013:\002>\337]&\276~M\217=\273\202*>\022\242\263=^\302\342=X1\002=\311q!>W$*\276\354*\026\275i;(\276\035\031 >s^\014>P\203\024\275\370\313\200=\374\332\001=\254\323\027=h_\'\275\262{\001\276\346\320\n\2760S1\274\020iM<\264\330&=\232\334\326=\370g\353\275\"\370\321=<\356\346\275\026 \322\275P9\001\274\303n\030>\210\227\304\274\r2\000\276X8\263\274.\213e\275v\032\345\275\020\346\022\275l\001\026=\016\035\372=\242\345\316\275\010;\274\274\206\223\232=l\0204\276\034\003\303\275\312|+\276p~\203=\321i,>?\254\021>\022\214\251=\254\2357\275>U\362=8{\253\274x\354\205=\020!\350\274|{R=E>\017>\3000\263<\356\220\203=\310\336\336<\344\020\007\276\225\332\t\276\340\231\n\276\006\316\262=\225\n\030>\362\202+\276$\334\366\275r\332\323=\0144G=\366\275\272=cC\r>\350\016\326\274\000\263\334\272\000\363J:\222!0\276(\302\300\274x\010{\275\240\2245\275\305\225\026>\300\262\205;\024\no=\305\350\017>\344\354\325\275\007\260\037>L\314T=\200\320\374<\252\217\335=VM\'\276\037\324(>\220{\362<\017\350\251\275\\H3\275x\\\216<\302\002\254=D\347\224\275\260\311P<\026a\200\275@\027!;V\370\275=\300%><\251\364/>\215\317\214\275\323\\\344\2757&\304\275\334|m=\310\350\366\275]\376\033>\310\276\336\274L&[=\020\332R<\213x2\276\240\220\370<@y\246<\200\376\003;DY\n\276t\321!=\036\202\247=Q\306!\276&\304\341=~\327\241=o:\001>@\373\026;\300d{\275\324*5\275\271q\021\276\010\270\033\275/\220\004>\266\002\337=\335:\034>\340\200\212=hC\243<Xk\207\275\270f\345<\373F\010>(?\260\275K\274\033\276\226~z\275\210\r\023=\260\034\200\274\242a\227=\305\230\231\275\320B}<\327\344\t>TX{=\315\255\346\275\'\375\346\275v\251\264=\331\255%>4\2646=$\204 \275P\254\344<\000^:=\177\275\021>\247\003\247\275\000S\345\274\260R\226<\305\022\'>\234Qp=\331\020\034\276[\265\005>\330\353\244\275\0176\253\275Q\006\306\275$\006\000=?u\230\275c\361\323\275W\226\016>7\236\026>\222\371\341=\217\355\031>\027\316\"\276H\347\001=\365c\027>\022\246\317=\265\305,>r.\370=R\306\251=\312\251\356=\256\326\363=*r\221\275\n\224\266=B0\333\275o\023\341\275\324)\031\275\000^5;p\325+<\315P0>\235R0>`\220\211;\364\314D=\034%7=\226\232\204=@#\037\275\314\010\213=Pix<P\326\210=\270\034\003=\'\362(\276\200w\260:\207q\200\275\233\207\272\275\222\332\363\275\034\243\013\276\214I\216=\020\274P\275\253\207\006>\244\357\261\275\240\321\002<\362\324\022\276\247\026\250\275\331\013\031>\346\343\310=X\271\216<\036\323\025\276\320\356\016\274\222\205.\2769\362\016\276\010p\300<\276\305\030\276\310]M=\326`\357\275%\327\032>\273\323)>\340\260b\275D\255/=\252\030\363\275\250\221\360<\256\005\353\275KP\010\276\327\222->\200\340\034<t\0203= \2208=\263\211\017\276 \2019<`\375\342;x-\352\274\200EG\274\250\250\354\274`i\204<\200K[\274-\177\026>\266\366\224=p\2019\274IQ\035>j\205\365=\251\324\021>\274h\016\276>z\353=\374\025A=\314kw\275P+\233\274\300\207S;\207\240\010>\361\242\030\276\003\370\014\276\221\260$>X7\023\276Y\253\013>\326S\275=:o\362\275\020\274\006\276\233\003\227\275\242\204\337=\345^3>\220F\207<\000\224\225=@\321\203\274&\355\325=\267\277\034>\260\002q\275\201\271+>\324|\'\275m\260\"> z\026\276\334\351\035\276.\235\343=\"\334\250\275J\266\371=t\247\326\275Z@\354=Hz\307<:=\354=|\357\025=\336\334\211=\256\177\206\275+&\300\275\3725\312=q\200\031\276\375\310\006\276\321B%>\346\010\035\276B+\372=\r!!>\256\344\036\276\344\227B\275\300\253\271;\352u\243\275`\t\250\274\266\306\333=\200\351\274;\204.`=\203\0171\276\200C\025<\2104\037=\216J\255\275\214/ =\000P\005<\243\027\002>\013\375\242\275\325\214\325\275#\264\374\275\200\216+\276(\312\277\275\232\276\200\275\217\222\005>\360\3166\275\\rD=3v\223\275,\314\204=1\340#\276\332\276\r\276l\024@=\302\"\270=\2162\265=\322\032\245\275f&\234=\205l$>dj;=\350h\335\275xdX\275\364:\010=\342\016\276=\232\302\204\275NV\210\275\024\302\207\275R?\276=\306\323\366=\003\340\273\275\004\003\014\275\335l\324\275hQ\003=\002\211\336=,\010\005\276\242\'\243=5\272\026>\367\356\030\276\227\373\235\275\3014\003>\360N\325\274\230\273\321\274d)<=\000\271R=\300\345V\275\327\246%\276\251 \000\276\300\020\200\274u\335/>\303\n\"\276\001\316\266\2750u\002<Td==\337\251\023>6y\205=NP\264\275\260\212\373\275P*\226<L\315\262\275\016h\312\2754f}=\246\220\223\275\253H\010>\376s\363\275\240\260<\275\242\004\006\276\2601\215=\2000\365;\364\277\004=0p\t< \371\320<\254J\'\275\322_\363\275\020\373g\274\357B\312\275\000gK<y9\276\275\225_\006>\230\233s\275P\202\237\275\300\251\025\273\224\315n=z3\350=`V\257;\200\341\204\274\001\265\336\275\245\303\013>\010Y\267\274\200!\201<\356\352\352=aN\023\276\310\211^=\322O\372=\204\037;=\334\332H\275\014`@=N\200\356\275u\323\310\275\334*\200=s\251\t>^\216\203=\000z\270:\211$\001>xs\200\275\3616\007>\'\352\314\275\032\313\226=X\271\210=\027V >\336\312\010\276p\260O<\035\021\263\275T{\326\275\301R2>>G\364\275l;A\275P%!\274\240,\372\275 \016<\275*o\365=P\312\013=\20744>\360E,\275\273v!>\3310\225\275y\024\024>\344\360T=\340:\342\273)\353\006>0\303z<\250\301\302<`/\257<\2662\365=p\0235\274I\341\'\276\340\363+=\200\233\035\273\356\365\235=\330\276\342<\000\021\310:\200\372\211\2739\001\003\276\273\375\007>rU\251=\344w0\2764\030\346\275\252Rp\275V\215\025\276M\245\002\276\235\021\000\276\250\022\213<@4\007=\356\275{\2750\315X\274\341\277\211\275`v\333<\222G\207=\017\270$>\036\315\247=(p\205<yh\013>H\266V\275B\214\364=\033\206->Pv\014<G\330\033\2762\177\316=\363\003\033>\372>\323=0\304/\274P\335\236\275\340\200\361;\276\337\"\276O6\010\276V\355\351\275\010\366==ht\310\274\306\347\317=\216\377\344=\260\214]=\257\272%>\357\r$\276E\233\000>X\264\373\275\330\007\203=\240\032\343\273\254l\217=\311/\345\275\360\316\370\275\207]!>\365\212\021>h\263\262<R\361\250=\022\251\346\275jP\367=\2104[=\316\325\341=\204\254\206\275\312w3\276\301\214\004>\010\276\"=H\340\000\275*\350\372=p\"\t\276U\225\343\275\316\250\312=\260`D=\240`\002=vI\177\275xR\204<\226\267\233=\000N\330\271\243\033\016\276>\223\322=\274\004\206=*6s\275B\030\343=\325\330\024>\320\177\262<.\364\205\275\\\266F\275\026\325\276=g\316!>:\302\266=@V\033\273;N\003\276\017A\001>\353\363\t>h\037\024\2760a\016\275\200[\020\273\'\255 \276\271<\337\275\005R!>\360\003\013=\000\314\316\273`\000\370<6Q4\276\216O\260=+\376\216\275\2209\373\274\245\336\272\275\344\326\021\275\000q\331\272hn-\276x8L=@\262\004\275\000+\312\274\244\236\037\275\017\306\014>7\266\027>Gb\010>X\262\352\274\251\021\025>0e\225\274.\377\323=\265q\024>\313\006\024>\243\345\233\275v\351{\275g\014\321\275BM\257=H\325 \276\350\355\205=N\177\212=\211^\023>\236{w\275n\233\230=\003\376,>\0009s\272\340\305\222\274\312\200j\275"
      }
    }
  }
}
node {
  name: "encoder_1/conv1d_2_1/convolution/ExpandDims_1/dim"
  op: "Const"
  attr {
    key: "dtype"
    value {
      type: DT_INT32
    }
  }
  attr {
    key: "value"
    value {
      tensor {
        dtype: DT_INT32
        tensor_shape {
        }
      }
    }
  }
}
node {
  name: "encoder_1/conv1d_2_1/Reshape/ReadVariableOp/resource"
  op: "Const"
  attr {
    key: "dtype"
    value {
      type: DT_FLOAT
    }
  }
  attr {
    key: "value"
    value {
      tensor {
        dtype: DT_FLOAT
        tensor_shape {
          dim {
            size: 32
          }
        }
        tensor_content: "\000\000\000\000\000\000\000\000\000\000\000\000\000\000\000\000\000\000\000\000\000\000\000\000\000\000\000\000\000\000\000\000\000\000\000\000\000\000\000\000\000\000\000\000\000\000\000\000\000\000\000\000\000\000\000\000\000\000\000\000\000\000\000\000\000\000\000\000\000\000\000\000\000\000\000\000\000\000\000\000\000\000\000\000\000\000\000\000\000\000\000\000\000\000\000\000\000\000\000\000\000\000\000\000\000\000\000\000\000\000\000\000\000\000\000\000\000\000\000\000\000\000\000\000\000\000\000\000"
      }
    }
  }
}
node {
  name: "encoder_1/conv1d_2_1/Reshape/shape"
  op: "Const"
  attr {
    key: "dtype"
    value {
      type: DT_INT32
    }
  }
  attr {
    key: "value"
    value {
      tensor {
        dtype: DT_INT32
        tensor_shape {
          dim {
            size: 3
          }
        }
        tensor_content: "\001\000\000\000\001\000\000\000 \000\000\000"
      }
    }
  }
}
node {
  name: "encoder_1/conv1d_3_1/convolution/ExpandDims/dim"
  op: "Const"
  attr {
    key: "dtype"
    value {
      type: DT_INT32
    }
  }
  attr {
    key: "value"
    value {
      tensor {
        dtype: DT_INT32
        tensor_shape {
        }
        int_val: -3
      }
    }
  }
}
node {
  name: "encoder_1/conv1d_3_1/convolution/ExpandDims_1/ReadVariableOp/resource"
  op: "Const"
  attr {
    key: "dtype"
    value {
      type: DT_FLOAT
    }
  }
  attr {
    key: "value"
    value {
      tensor {
        dtype: DT_FLOAT
        tensor_shape {
          dim {
            size: 3
          }
          dim {
            size: 32
          }
          dim {
            size: 64
          }
        }
